{
  "version": "1.0",
  "truncation": null,
  "padding": null,
  "added_tokens": [
    {
      "id": 0,
      "content": "<pad>",
      "single_word": false,
      "lstrip": false,
      "rstrip": false,
      "normalized": false,
      "special": true
    },
    {
      "id": 1,
      "content": "<mask>",
      "single_word": false,
      "lstrip": false,
      "rstrip": false,
      "normalized": false,
      "special": true
    },
    {
      "id": 2,
      "content": "<bos>",
      "single_word": false,
      "lstrip": false,
      "rstrip": false,
      "normalized": false,
      "special": true
    },
    {
      "id": 3,
      "content": "<eos>",
      "single_word": false,
      "lstrip": false,
      "rstrip": false,
      "normalized": false,
      "special": true
    },
    {
      "id": 4,
      "content": "<unk>",
      "single_word": false,
      "lstrip": false,
      "rstrip": false,
      "normalized": false,
      "special": true
    }
  ],
  "normalizer": null,
  "pre_tokenizer": {
    "type": "ByteLevel",
    "add_prefix_space": false,
    "trim_offsets": true,
    "use_regex": true
  },
  "post_processor": {
    "type": "ByteLevel",
    "add_prefix_space": true,
    "trim_offsets": true,
    "use_regex": true
  },
  "decoder": null,
  "model": {
    "type": "BPE",
    "dropout": null,
    "unk_token": "<unk>",
    "continuing_subword_prefix": null,
    "end_of_word_suffix": null,
    "fuse_unk": false,
    "byte_fallback": false,
    "ignore_merges": false,
    "vocab": {
      "<pad>": 0,
      "<mask>": 1,
      "<bos>": 2,
      "<eos>": 3,
      "<unk>": 4,
      "!": 5,
      "\"": 6,
      "$": 7,
      "&": 8,
      "'": 9,
      "(": 10,
      ")": 11,
      "*": 12,
      "+": 13,
      ",": 14,
      "-": 15,
      ".": 16,
      "/": 17,
      "0": 18,
      "1": 19,
      "2": 20,
      "3": 21,
      "4": 22,
      "5": 23,
      "6": 24,
      "7": 25,
      "8": 26,
      "9": 27,
      ":": 28,
      ";": 29,
      "?": 30,
      "A": 31,
      "B": 32,
      "C": 33,
      "D": 34,
      "E": 35,
      "F": 36,
      "G": 37,
      "H": 38,
      "I": 39,
      "J": 40,
      "K": 41,
      "L": 42,
      "M": 43,
      "N": 44,
      "O": 45,
      "P": 46,
      "Q": 47,
      "R": 48,
      "S": 49,
      "T": 50,
      "U": 51,
      "V": 52,
      "W": 53,
      "X": 54,
      "Y": 55,
      "Z": 56,
      "_": 57,
      "`": 58,
      "a": 59,
      "b": 60,
      "c": 61,
      "d": 62,
      "e": 63,
      "f": 64,
      "g": 65,
      "h": 66,
      "i": 67,
      "j": 68,
      "k": 69,
      "l": 70,
      "m": 71,
      "n": 72,
      "o": 73,
      "p": 74,
      "q": 75,
      "r": 76,
      "s": 77,
      "t": 78,
      "u": 79,
      "v": 80,
      "w": 81,
      "x": 82,
      "y": 83,
      "z": 84,
      "¡": 85,
      "¢": 86,
      "¦": 87,
      "©": 88,
      "«": 89,
      "¬": 90,
      "°": 91,
      "±": 92,
      "³": 93,
      "´": 94,
      "»": 95,
      "Â": 96,
      "Ã": 97,
      "Å": 98,
      "Ë": 99,
      "â": 100,
      "ĉ": 101,
      "Ċ": 102,
      "Ġ": 103,
      "Ģ": 104,
      "Ĥ": 105,
      "ĥ": 106,
      "Ħ": 107,
      "ĵ": 108,
      "ľ": 109,
      "Ŀ": 110,
      "ł": 111,
      "he": 112,
      "Ġt": 113,
      "Ġa": 114,
      "Ġs": 115,
      "Ġw": 116,
      "nd": 117,
      "Ġthe": 118,
      "ed": 119,
      "Ġand": 120,
      "Ġto": 121,
      "Ġb": 122,
      "in": 123,
      "Ġh": 124,
      "Ġwa": 125,
      "re": 126,
      "Ġf": 127,
      "ou": 128,
      "it": 129,
      "Ġl": 130,
      "Ġc": 131,
      "Ġd": 132,
      "er": 133,
      "Ġhe": 134,
      "Ġm": 135,
      "Ġp": 136,
      "Ġwas": 137,
      "om": 138,
      "ĠT": 139,
      "Ġo": 140,
      "ay": 141,
      "ar": 142,
      "is": 143,
      "ing": 144,
      "il": 145,
      "Ġg": 146,
      "id": 147,
      "at": 148,
      "en": 149,
      "Ġn": 150,
      "Ġsa": 151,
      "Ġha": 152,
      "ĠS": 153,
      "ĠThe": 154,
      "an": 155,
      "im": 156,
      "or": 157,
      "on": 158,
      "Ġit": 159,
      "Ġth": 160,
      "ll": 161,
      "le": 162,
      "ĠH": 163,
      "Ġher": 164,
      "ot": 165,
      "et": 166,
      "ir": 167,
      "ĠShe": 168,
      "ĠHe": 169,
      "es": 170,
      "Ġin": 171,
      "ver": 172,
      "ut": 173,
      "ow": 174,
      "ĠThey": 175,
      "ck": 176,
      "Ġe": 177,
      "Ġu": 178,
      "ld": 179,
      "ily": 180,
      "Ġy": 181,
      "oo": 182,
      "Ġsaid": 183,
      "ig": 184,
      "Ġr": 185,
      "am": 186,
      "Ġbe": 187,
      "Ġst": 188,
      "Ġ\"": 189,
      "ce": 190,
      "ĠI": 191,
      "Ġshe": 192,
      "ke": 193,
      "pp": 194,
      "ith": 195,
      "Lily": 196,
      "ve": 197,
      "Ġwith": 198,
      "On": 199,
      "Ġon": 200,
      "Ġof": 201,
      "ri": 202,
      "ked": 203,
      "Ġhis": 204,
      "Ġyou": 205,
      "Ġpl": 206,
      "Ġso": 207,
      "nt": 208,
      "very": 209,
      "ad": 210,
      "Ġday": 211,
      "Ġthat": 212,
      "Ġup": 213,
      "ĠLily": 214,
      "Ġplay": 215,
      "Ġhad": 216,
      "Ġthey": 217,
      "st": 218,
      "Ġwe": 219,
      "Ġmom": 220,
      "Ġfor": 221,
      "el": 222,
      "my": 223,
      "ould": 224,
      "un": 225,
      "ĠB": 226,
      "'s": 227,
      "The": 228,
      "Ġli": 229,
      "Ġhapp": 230,
      "ch": 231,
      "ent": 232,
      "itt": 233,
      "Ġwant": 234,
      "her": 235,
      "Ġsh": 236,
      "out": 237,
      "Ġdo": 238,
      "Ġnot": 239,
      "Ġvery": 240,
      "ome": 241,
      "ly": 242,
      "all": 243,
      "ound": 244,
      "end": 245,
      "ittle": 246,
      "ime": 247,
      "se": 248,
      "Ġwh": 249,
      "Ġk": 250,
      "Ġlittle": 251,
      "Ġtime": 252,
      "Ġthere": 253,
      "al": 254,
      "Ġne": 255,
      "ht": 256,
      "Ġhappy": 257,
      "Ġbig": 258,
      "Ġre": 259,
      "ĠM": 260,
      "Ġis": 261,
      "ĠIt": 262,
      "Ġsm": 263,
      "Ġbut": 264,
      "ĠĊ": 265,
      "ra": 266,
      "Ġsaw": 267,
      "riend": 268,
      "Ġfriend": 269,
      "Ġan": 270,
      "ry": 271,
      "Ġas": 272,
      "ack": 273,
      ".\"": 274,
      "One": 275,
      "ide": 276,
      "ake": 277,
      "'t": 278,
      "ved": 279,
      "ter": 280,
      "ug": 281,
      "Once": 282,
      "Ġlo": 283,
      "Ġloo": 284,
      "Ġwere": 285,
      "ore": 286,
      "!\"": 287,
      "ec": 288,
      "Ġbo": 289,
      "Ġhim": 290,
      "Ġtoo": 291,
      "ĠTim": 292,
      "Ġse": 293,
      "Ġgo": 294,
      "irl": 295,
      "Ġupon": 296,
      "Ġwanted": 297,
      "Ġj": 298,
      "ard": 299,
      "Ġgirl": 300,
      "ill": 301,
      "Ġare": 302,
      "Ġthem": 303,
      "Ġout": 304,
      "Ġat": 305,
      "Ġtheir": 306,
      "ind": 307,
      "Ġsp": 308,
      "way": 309,
      "fu": 310,
      "Ġdid": 311,
      "ur": 312,
      "Ġcould": 313,
      "ĠA": 314,
      "hen": 315,
      "Ġsmil": 316,
      "ain": 317,
      "Ġhave": 318,
      "art": 319,
      "Ġwent": 320,
      "hed": 321,
      "Ġex": 322,
      "rom": 323,
      "ic": 324,
      "round": 325,
      "lp": 326,
      "Ġnam": 327,
      "Ġcan": 328,
      "ful": 329,
      "Ġfriends": 330,
      "ĠBen": 331,
      "hing": 332,
      "Ġhelp": 333,
      "Ġkn": 334,
      "Ġall": 335,
      "ĠJ": 336,
      "ood": 337,
      "ight": 338,
      "?\"": 339,
      "um": 340,
      "ark": 341,
      "one": 342,
      "Ġback": 343,
      "Ġfun": 344,
      "Ġcl": 345,
      "are": 346,
      "Ġsay": 347,
      "Ġle": 348,
      "You": 349,
      "Ġnamed": 350,
      "Ġno": 351,
      "ĠTom": 352,
      "Ġloved": 353,
      "op": 354,
      "elt": 355,
      "ĠTimmy": 356,
      "ĠOne": 357,
      "oug": 358,
      "Ġal": 359,
      "Ġsc": 360,
      "side": 361,
      "Ġfelt": 362,
      "Ġtoy": 363,
      "ick": 364,
      "Ġsmiled": 365,
      "Ġman": 366,
      "Ġfe": 367,
      "Ġasked": 368,
      "Ġsee": 369,
      "ame": 370,
      "Ġlooked": 371,
      "Ġlike": 372,
      "Ġaround": 373,
      "Ġsome": 374,
      "omet": 375,
      "ure": 376,
      "Ġro": 377,
      "Ġboy": 378,
      "Ġbr": 379,
      "get": 380,
      "Ġwould": 381,
      "Ġme": 382,
      "ĠW": 383,
      "Ġbir": 384,
      "ong": 385,
      "ice": 386,
      "Ġstart": 387,
      "ss": 388,
      "Ġsomet": 389,
      "Ġbird": 390,
      "ings": 391,
      "Ġfa": 392,
      "Ġwor": 393,
      "Ġag": 394,
      "ade": 395,
      "Ġmake": 396,
      "Ġwhat": 397,
      "Ġtre": 398,
      "dd": 399,
      "king": 400,
      "gether": 401,
      "own": 402,
      "ĠBut": 403,
      "Ġaway": 404,
      "Ġran": 405,
      "ag": 406,
      "Ġstarted": 407,
      ",\"": 408,
      "oud": 409,
      "ĠYou": 410,
      "Ġmade": 411,
      "ared": 412,
      "ie": 413,
      "Ġtogether": 414,
      "Ã¢": 415,
      "âĤ": 416,
      "âĤ¬": 417,
      "Ġco": 418,
      "Ġsays": 419,
      "Ġpark": 420,
      "Ġsomething": 421,
      "if": 422,
      "Ġcar": 423,
      "ther": 424,
      "ited": 425,
      "Ġsad": 426,
      "Ġput": 427,
      "Ġnew": 428,
      "Ġother": 429,
      "Ġpr": 430,
      "ble": 431,
      "Ġagain": 432,
      "Ġfrom": 433,
      "Ġexc": 434,
      "Ġhug": 435,
      "Ġmu": 436,
      "Ġhome": 437,
      "Ġla": 438,
      "ell": 439,
      "Ġwhen": 440,
      "Ġwho": 441,
      "ook": 442,
      "Ġgood": 443,
      "est": 444,
      "ried": 445,
      "Ġfound": 446,
      "ĠL": 447,
      "Ġthen": 448,
      "ach": 449,
      "ep": 450,
      "Ġdec": 451,
      "Ġfl": 452,
      "pped": 453,
      "Ġch": 454,
      "as": 455,
      "Ġplaying": 456,
      "ought": 457,
      "Ġwal": 458,
      "Ġget": 459,
      "qu": 460,
      "ally": 461,
      "hat": 462,
      "ĠE": 463,
      "Ġthings": 464,
      "Ġsw": 465,
      "uck": 466,
      "Ġgot": 467,
      "pl": 468,
      "ous": 469,
      "Ġliked": 470,
      "nn": 471,
      "Ġevery": 472,
      "Ġdecid": 473,
      "Ġexcited": 474,
      "ave": 475,
      "Ġdecided": 476,
      "ro": 477,
      "Ġcame": 478,
      "ax": 479,
      "Ġbl": 480,
      "Ġbec": 481,
      "Ġdown": 482,
      "Ġyour": 483,
      "Ġfind": 484,
      "Ġcare": 485,
      "Ġdog": 486,
      "ust": 487,
      "Ġscared": 488,
      "Ġone": 489,
      "Ġfeel": 490,
      "Ġv": 491,
      "Ġthan": 492,
      "ist": 493,
      "ouse": 494,
      "ny": 495,
      "Ġdad": 496,
      "ĠD": 497,
      "ap": 498,
      "ĠMom": 499,
      "Ġab": 500,
      "arn": 501,
      "ara": 502,
      "ways": 503,
      "ue": 504,
      "Ġdidn": 505,
      "nna": 506,
      "Ġgra": 507,
      "udd": 508,
      "Ġmy": 509,
      "Ġalways": 510,
      "ant": 511,
      "Ġtook": 512,
      "ers": 513,
      "They": 514,
      "Ġke": 515,
      "us": 516,
      "Ġmommy": 517,
      "ess": 518,
      "ĠF": 519,
      "fe": 520,
      "Ġabout": 521,
      "our": 522,
      "Ġlot": 523,
      "Ġtoys": 524,
      "Ġtree": 525,
      "Ġpo": 526,
      "Ġkne": 527,
      "Ġball": 528,
      "Ġlook": 529,
      "Ġwill": 530,
      "nder": 531,
      "Ġoutside": 532,
      "ite": 533,
      "Ġthought": 534,
      "eci": 535,
      "ened": 536,
      "Ġta": 537,
      "Ġlearn": 538,
      "bb": 539,
      "ise": 540,
      "ched": 541,
      "Ġmore": 542,
      "Ġpre": 543,
      "Ġknow": 544,
      "Ġho": 545,
      "Ġint": 546,
      "ĠSam": 547,
      "ged": 548,
      "ecial": 549,
      "Ġspecial": 550,
      "Ġold": 551,
      "Ġtake": 552,
      "Ġsor": 553,
      "ĠMax": 554,
      "Ġlaug": 555,
      "Ġpe": 556,
      "Ġknew": 557,
      "ive": 558,
      "Ġcat": 559,
      "ma": 560,
      "fter": 561,
      "Ġhow": 562,
      "Ġany": 563,
      "udden": 564,
      "au": 565,
      "Ġshow": 566,
      "Ġtr": 567,
      "Ġmuch": 568,
      "ia": 569,
      "uddenly": 570,
      "and": 571,
      "Ġsorry": 572,
      "Ġsl": 573,
      "ink": 574,
      "But": 575,
      "ish": 576,
      "Ġrun": 577,
      "Ġhouse": 578,
      "Ġtw": 579,
      "ven": 580,
      "Ġtold": 581,
      "Ġor": 582,
      "Ġsk": 583,
      "Ġop": 584,
      "Ġhand": 585,
      "Ġsun": 586,
      "Ġinside": 587,
      "Ġgave": 588,
      "Ġtried": 589,
      "Ġmo": 590,
      "Ġclo": 591,
      "Ġinto": 592,
      "Ġwater": 593,
      "Ġproud": 594,
      "ank": 595,
      "Ġcouldn": 596,
      "Ġover": 597,
      "Ġqu": 598,
      "ause": 599,
      "ate": 600,
      "Ġnever": 601,
      "ump": 602,
      "ty": 603,
      "other": 604,
      "ĠEvery": 605,
      "Ġen": 606,
      "Ġeat": 607,
      "Ġif": 608,
      "ace": 609,
      "Ġroom": 610,
      "Ġplayed": 611,
      "etter": 612,
      "Ġheard": 613,
      "ge": 614,
      "Ġexpl": 615,
      "Ġeach": 616,
      "Ġpick": 617,
      "Ġpret": 618,
      "ion": 619,
      "Ġthis": 620,
      "by": 621,
      "here": 622,
      "dy": 623,
      "ĠWe": 624,
      "Tom": 625,
      "ak": 626,
      "Ġbecause": 627,
      "ĠAnna": 628,
      "Ġhugged": 629,
      "Ġstr": 630,
      "Ġcom": 631,
      "Ġwat": 632,
      "Ġgre": 633,
      "Ġbox": 634,
      "Ġjust": 635,
      "Ġnice": 636,
      "ile": 637,
      "ĠSara": 638,
      "oth": 639,
      "Ġneed": 640,
      "iz": 641,
      "Mom": 642,
      "Ġjo": 643,
      "Ġoff": 644,
      "Ġmany": 645,
      "Ġlong": 646,
      "Ġbear": 647,
      "Ġsmall": 648,
      "Ġfo": 649,
      "Ġbu": 650,
      "ving": 651,
      "Ġsn": 652,
      "ough": 653,
      "Ġlearned": 654,
      "'m": 655,
      "ort": 656,
      "ine": 657,
      "Ġunt": 658,
      "uc": 659,
      "imal": 660,
      "Ġanimal": 661,
      "gry": 662,
      "Ġtry": 663,
      "Ġbetter": 664,
      "ild": 665,
      "sel": 666,
      "Ġuntil": 667,
      "sed": 668,
      "Ġlove": 669,
      "urt": 670,
      "ĠJack": 671,
      "ft": 672,
      "Ġim": 673,
      "em": 674,
      "Ġdre": 675,
      "Ġend": 676,
      "Ġkind": 677,
      "Ġcall": 678,
      "Ġcle": 679,
      "ber": 680,
      "Ġflow": 681,
      "Ġad": 682,
      "Ġbest": 683,
      "urn": 684,
      "vent": 685,
      "ĠHer": 686,
      "He": 687,
      "aut": 688,
      "ĠAnd": 689,
      "ĠSo": 690,
      "ars": 691,
      "Ġfi": 692,
      "Ġpu": 693,
      "ady": 694,
      "Ġcareful": 695,
      "Ġsky": 696,
      "Ġfast": 697,
      "Ġgr": 698,
      "ves": 699,
      "Ġthanked": 700,
      "Ġeven": 701,
      "Ġbeaut": 702,
      "ĠC": 703,
      "Yes": 704,
      "Ġbra": 705,
      "urp": 706,
      "arden": 707,
      "ĠJo": 708,
      "Ġgarden": 709,
      "Ġdon": 710,
      "pt": 711,
      "lly": 712,
      "Ġche": 713,
      "Ġte": 714,
      "ĠMia": 715,
      "Ġby": 716,
      "self": 717,
      "Th": 718,
      "Ġlots": 719,
      "ies": 720,
      "iny": 721,
      "Ġgl": 722,
      "Ġloud": 723,
      "Ġlaughed": 724,
      "Ġfam": 725,
      "Ġjump": 726,
      "ase": 727,
      "Ġbeauti": 728,
      "lew": 729,
      "Ġlist": 730,
      "Ġstill": 731,
      "wn": 732,
      "Ġbeautiful": 733,
      "ĠFrom": 734,
      "rm": 735,
      "Ġhard": 736,
      "Ġway": 737,
      "Ġcome": 738,
      "Ġhurt": 739,
      "Ġwo": 740,
      "Ġanimals": 741,
      "It": 742,
      "ct": 743,
      "Ġra": 744,
      "ĠHis": 745,
      "ast": 746,
      "hes": 747,
      "Ġcol": 748,
      "Ġunder": 749,
      "ĠThen": 750,
      "Ġrem": 751,
      "Åĵ": 752,
      "ning": 753,
      "Ġsafe": 754,
      "Ġstay": 755,
      "ect": 756,
      "be": 757,
      "Ġlet": 758,
      "Ġlived": 759,
      "Ġboth": 760,
      "Tim": 761,
      "ool": 762,
      "Ġcu": 763,
      "ople": 764,
      "Ġimp": 765,
      "Ġbrave": 766,
      "Ġfamily": 767,
      "Ġits": 768,
      "kay": 769,
      "Ġbad": 770,
      "ob": 771,
      "Ġdan": 772,
      "Ġred": 773,
      "Ġstor": 774,
      "ished": 775,
      "Ġbook": 776,
      "Ġtwo": 777,
      "ane": 778,
      "When": 779,
      "ree": 780,
      "Ġfin": 781,
      "Ġpeople": 782,
      "ucy": 783,
      "Ġshould": 784,
      "urpr": 785,
      "ock": 786,
      "Ġcalled": 787,
      "ĠÃ¢": 788,
      "Ġflew": 789,
      "Ġfly": 790,
      "Ġpic": 791,
      "igh": 792,
      "Ġwalked": 793,
      "Ġsurpr": 794,
      "Ġangry": 795,
      "Ġsoon": 796,
      "Ġfore": 797,
      "ĠWhen": 798,
      "Ġdoll": 799,
      "xt": 800,
      "led": 801,
      "Ġkept": 802,
      "Ġclean": 803,
      "Ġshare": 804,
      "fore": 805,
      "ised": 806,
      "Ġrock": 807,
      "Ġpretty": 808,
      "No": 809,
      "Ġdra": 810,
      "hn": 811,
      "Ġgoing": 812,
      "ip": 813,
      "Ġdoor": 814,
      "Let": 815,
      "Ġcon": 816,
      "ĠP": 817,
      "Ġkeep": 818,
      "Ġground": 819,
      "Ġshiny": 820,
      "Ġopened": 821,
      "dded": 822,
      "Ġadvent": 823,
      "ummy": 824,
      "Ġreal": 825,
      "Ġnow": 826,
      "Ġwind": 827,
      "Ġcry": 828,
      "illy": 829,
      "Ġexplore": 830,
      "age": 831,
      "Ġcre": 832,
      "Ġsto": 833,
      "Ben": 834,
      "Ġide": 835,
      "Ġbefore": 836,
      "Ġnoise": 837,
      "Ġfr": 838,
      "Ġcolor": 839,
      "Ġturn": 840,
      "ary": 841,
      "les": 842,
      "so": 843,
      "Ġfar": 844,
      "ture": 845,
      "âĤ¬â": 846,
      "Ġalso": 847,
      "Ġpicked": 848,
      "Ġfeeling": 849,
      "ied": 850,
      "Ġwhile": 851,
      "Ġey": 852,
      "Ġidea": 853,
      "imb": 854,
      "oon": 855,
      "oy": 856,
      "Ġclimb": 857,
      "Ġnext": 858,
      "ff": 859,
      "thing": 860,
      "Ġbed": 861,
      "Ġun": 862,
      "Ġwr": 863,
      "What": 864,
      "eet": 865,
      "Ġthr": 866,
      "Ġhas": 867,
      "Ġwalking": 868,
      "ĠLucy": 869,
      "Ġsmile": 870,
      "uch": 871,
      "Ġpicture": 872,
      "That": 873,
      "ger": 874,
      "iced": 875,
      "Ġtruck": 876,
      "Ġnodded": 877,
      "Ġadventure": 878,
      "th": 879,
      "Ġma": 880,
      "aybe": 881,
      "Ħ¢": 882,
      "âĤ¬âĦ¢": 883,
      "kes": 884,
      "Ġbeing": 885,
      "ember": 886,
      "ĠG": 887,
      "ted": 888,
      "Thank": 889,
      "ious": 890,
      "joy": 891,
      "ac": 892,
      "Ġclos": 893,
      "ting": 894,
      "Ġgive": 895,
      "Ġfood": 896,
      "Ġtra": 897,
      "Ġlooking": 898,
      "Ġwait": 899,
      "Ġlisten": 900,
      "ĠDad": 901,
      "Ġstopped": 902,
      "Ġblue": 903,
      "ized": 904,
      "ught": 905,
      "Ġtow": 906,
      "Ġremember": 907,
      "Ġbre": 908,
      "Ġdif": 909,
      "Ġafter": 910,
      "Ġbro": 911,
      "Ġhands": 912,
      "ĠSuddenly": 913,
      "Ġnoticed": 914,
      "Ġthink": 915,
      "maz": 916,
      "Ġeyes": 917,
      "Ġamaz": 918,
      "Ġdel": 919,
      "Ġwalk": 920,
      "able": 921,
      "Ġquick": 922,
      "Ġown": 923,
      "Ġenjoy": 924,
      "Ġforest": 925,
      "She": 926,
      "Ġdis": 927,
      "Ġslide": 928,
      "Ġgreat": 929,
      "Ġever": 930,
      "Ġshowed": 931,
      "Ġrepl": 932,
      "Ġwatch": 933,
      "irst": 934,
      "Ġstrong": 935,
      "Ġflowers": 936,
      "Ġapp": 937,
      "bbit": 938,
      "Ġeveryone": 939,
      "Ġimport": 940,
      "Ġwonder": 941,
      "Ġrain": 942,
      "Ġfish": 943,
      "Ġwork": 944,
      "llow": 945,
      "Ġvo": 946,
      "Ġac": 947,
      "Ġtal": 948,
      "Suddenly": 949,
      "Ġboat": 950,
      "Ġnear": 951,
      "Ġstick": 952,
      "Ġask": 953,
      "ĠSp": 954,
      "Ġokay": 955,
      "Ġhead": 956,
      "Ġimportant": 957,
      "Ġwhere": 958,
      "Ġshout": 959,
      "Ġmean": 960,
      "Ġrabbit": 961,
      "gan": 962,
      "Ġright": 963,
      "Ġplace": 964,
      "Ġus": 965,
      "bye": 966,
      "Ġsound": 967,
      "bbed": 968,
      "Ġquickly": 969,
      "Ġyell": 970,
      "Ġfollow": 971,
      "Ġreplied": 972,
      "Ġuse": 973,
      "Ġbright": 974,
      "lease": 975,
      "ĠBob": 976,
      "Ġwatched": 977,
      "Ġdress": 978,
      "Ġde": 979,
      "fere": 980,
      "ange": 981,
      "Ġbecame": 982,
      "day": 983,
      "ĠN": 984,
      "Ġdiffere": 985,
      "ath": 986,
      "Ġmor": 987,
      "ered": 988,
      "Ġar": 989,
      "Ġsure": 990,
      "co": 991,
      "We": 992,
      "ndma": 993,
      "Ġcake": 994,
      "Ġchild": 995,
      "Ġhigh": 996,
      "Ġcuri": 997,
      "Ġbeen": 998,
      "ĠR": 999,
      "Ġmag": 1000,
      "ount": 1001,
      "Ġstore": 1002,
      "Ġour": 1003,
      "Ġwarm": 1004,
      "Ġye": 1005,
      "aught": 1006,
      "Ġsqu": 1007,
      "Ġhop": 1008,
      "Ġface": 1009,
      "Ġgoodbye": 1010,
      "Ġforg": 1011,
      "more": 1012,
      "Ġdifferent": 1013,
      "Ġanymore": 1014,
      "Ġcloser": 1015,
      "Ġdoes": 1016,
      "Anna": 1017,
      "Look": 1018,
      "So": 1019,
      "leep": 1020,
      "ng": 1021,
      "Ġcurious": 1022,
      "Ġcook": 1023,
      "Ġtell": 1024,
      "Ġam": 1025,
      "Ġvoice": 1026,
      "Ġnight": 1027,
      "itc": 1028,
      "ila": 1029,
      "imes": 1030,
      "Ġpain": 1031,
      "ĠSue": 1032,
      "Ġbel": 1033,
      "ĠSpot": 1034,
      "ired": 1035,
      "Ġbutter": 1036,
      "Ġopen": 1037,
      "ached": 1038,
      "Ġfav": 1039,
      "Ġpa": 1040,
      "Her": 1041,
      "Ġhelped": 1042,
      "Ġfirst": 1043,
      "Ġfell": 1044,
      "ull": 1045,
      "Ġcont": 1046,
      "Sara": 1047,
      "ĠMommy": 1048,
      "Ġhappened": 1049,
      "Ġz": 1050,
      "ĠTh": 1051,
      "Ġlea": 1052,
      "Ġthree": 1053,
      "Ġsees": 1054,
      "iss": 1055,
      "Can": 1056,
      "Ġkitc": 1057,
      "Ġkitchen": 1058,
      "Jo": 1059,
      "Ġpull": 1060,
      "Ġfire": 1061,
      "Ġflo": 1062,
      "Ġbus": 1063,
      "Ġbirds": 1064,
      "Ġblock": 1065,
      "Ġgrabbed": 1066,
      "Ġsweet": 1067,
      "After": 1068,
      "Ġstory": 1069,
      "Ġhere": 1070,
      "Ġonly": 1071,
      "Ġkid": 1072,
      "Ġbrother": 1073,
      "Ġdr": 1074,
      "Ġsand": 1075,
      "unny": 1076,
      "Ġglad": 1077,
      "Ġbit": 1078,
      "Ġru": 1079,
      "Ġgrass": 1080,
      "Ġrealized": 1081,
      "ppy": 1082,
      "ater": 1083,
      "Ġjumped": 1084,
      "orn": 1085,
      "Ġbeh": 1086,
      "Ġmon": 1087,
      "Ġper": 1088,
      "Ġdraw": 1089,
      "Ġstop": 1090,
      "Ġreached": 1091,
      "Ġcra": 1092,
      "ĠEveryone": 1093,
      "Ġsing": 1094,
      "ins": 1095,
      "Ġhaving": 1096,
      "Ġcr": 1097,
      "Ġmess": 1098,
      "zy": 1099,
      "ĠDo": 1100,
      "nts": 1101,
      "Ġrest": 1102,
      "uff": 1103,
      "Ġba": 1104,
      "Ġthrough": 1105,
      "Ġtri": 1106,
      "Ġprin": 1107,
      "Ġate": 1108,
      "ĠAs": 1109,
      "ĠJane": 1110,
      "Ġsoft": 1111,
      "Ġless": 1112,
      "Ġpap": 1113,
      "isy": 1114,
      "Ġready": 1115,
      "Ġyummy": 1116,
      "where": 1117,
      "Ġworld": 1118,
      "'re": 1119,
      "Ġhat": 1120,
      "akes": 1121,
      "Ġgame": 1122,
      "Ġfix": 1123,
      "Ġreally": 1124,
      "ĠLet": 1125,
      "Ġlady": 1126,
      "Ġshouted": 1127,
      "Ġpare": 1128,
      "Ġfavor": 1129,
      "Ġbegan": 1130,
      "Ġfavorite": 1131,
      "Ġhimself": 1132,
      "Ġunderst": 1133,
      "Ġcut": 1134,
      "Ġtired": 1135,
      "ĠSarah": 1136,
      "Ġmagic": 1137,
      "Ġduck": 1138,
      "fully": 1139,
      "Ġpretend": 1140,
      "ken": 1141,
      "Ġused": 1142,
      "Ġmum": 1143,
      "Ġtast": 1144,
      "ather": 1145,
      "Ġbutterf": 1146,
      "sh": 1147,
      "Ġthing": 1148,
      "Ġdone": 1149,
      "Ġworry": 1150,
      "Ġcoming": 1151,
      "ign": 1152,
      "Ġmaking": 1153,
      "illed": 1154,
      "Ġcatch": 1155,
      "ĠCan": 1156,
      "Ġkids": 1157,
      "Ġfunny": 1158,
      "Ġname": 1159,
      "Ġpus": 1160,
      "eddy": 1161,
      "Wow": 1162,
      "Ġseen": 1163,
      "As": 1164,
      "ster": 1165,
      "Ġpond": 1166,
      "Ġlooks": 1167,
      "Ġcars": 1168,
      "ĠThat": 1169,
      "Ġcried": 1170,
      "Ġfro": 1171,
      "Ġste": 1172,
      "Timmy": 1173,
      "Ġanother": 1174,
      "ient": 1175,
      "Ġtop": 1176,
      "air": 1177,
      "olly": 1178,
      "Ġwhy": 1179,
      "Mommy": 1180,
      "Ġprom": 1181,
      "Ġwaved": 1182,
      "Ġflower": 1183,
      "Ġbag": 1184,
      "Ġpart": 1185,
      "Ġbunny": 1186,
      "Ġhair": 1187,
      "Ġparents": 1188,
      "Ġtouch": 1189,
      "bo": 1190,
      "ards": 1191,
      "Don": 1192,
      "Ġpaper": 1193,
      "Ġgi": 1194,
      "Ġdin": 1195,
      "Ġlight": 1196,
      "Ġgreen": 1197,
      "Ġdri": 1198,
      "Ġcool": 1199,
      "Ġdelic": 1200,
      "Ġdro": 1201,
      "Ġlesson": 1202,
      "Ġhole": 1203,
      "Ġswim": 1204,
      "ĠJohn": 1205,
      "hy": 1206,
      "ĠJoe": 1207,
      "Ġtrees": 1208,
      "iver": 1209,
      "Ġsurprise": 1210,
      "Ġyellow": 1211,
      "Ġremembered": 1212,
      "Ġbehind": 1213,
      "Ġfloor": 1214,
      "oney": 1215,
      "Ġhold": 1216,
      "ely": 1217,
      "ued": 1218,
      "Ġworked": 1219,
      "mer": 1220,
      "Ġfull": 1221,
      "Ġthank": 1222,
      "Ġrunning": 1223,
      "rel": 1224,
      "Ġhopped": 1225,
      "ation": 1226,
      "Ġsleep": 1227,
      "andy": 1228,
      "Ġwished": 1229,
      "ssed": 1230,
      "Ġspot": 1231,
      "Ġsmell": 1232,
      "Ġset": 1233,
      "ike": 1234,
      "Ġblocks": 1235,
      "Ġcold": 1236,
      "Ġlost": 1237,
      "Ġsat": 1238,
      "Ġhappily": 1239,
      "Ġread": 1240,
      "Ġwear": 1241,
      "Ġdoing": 1242,
      "Ġneeded": 1243,
      "Ġdream": 1244,
      "Ġdark": 1245,
      "Ġmouse": 1246,
      "Ġstre": 1247,
      "Ġbow": 1248,
      "aisy": 1249,
      "Ġwood": 1250,
      "Ġslow": 1251,
      "Ġlaugh": 1252,
      "ren": 1253,
      "Ġbutterfly": 1254,
      "Ġsho": 1255,
      "Ġcarefully": 1256,
      "Sam": 1257,
      "Ġtall": 1258,
      "Ġyears": 1259,
      "Ġleft": 1260,
      "Ġ-": 1261,
      "Ġlikes": 1262,
      "Ġcla": 1263,
      "Ġsurprised": 1264,
      "Ġhill": 1265,
      "Ġwindow": 1266,
      "Ġfrog": 1267,
      "Ġswing": 1268,
      "Ġenjoyed": 1269,
      "Ġheld": 1270,
      "Ġfinished": 1271,
      "uit": 1272,
      "Ġsnow": 1273,
      "Ġhear": 1274,
      "Ġmove": 1275,
      "ĠAfter": 1276,
      "Ġbuy": 1277,
      "ens": 1278,
      "\".": 1279,
      "Ġwrong": 1280,
      "Ġice": 1281,
      "Ġperf": 1282,
      "John": 1283,
      "ined": 1284,
      "Ġfollowed": 1285,
      "Ġair": 1286,
      "inally": 1287,
      "Ġarri": 1288,
      "Ġlion": 1289,
      "ul": 1290,
      "ĠBenny": 1291,
      "Ġfair": 1292,
      "Ġherself": 1293,
      "Ġhid": 1294,
      "ĠIn": 1295,
      "Ġanything": 1296,
      "Ġcontin": 1297,
      "Hell": 1298,
      "Hello": 1299,
      "Ġhun": 1300,
      "Ġclose": 1301,
      "Ġdir": 1302,
      "Ġchildren": 1303,
      "Ġbug": 1304,
      "Ġfriendly": 1305,
      "cess": 1306,
      "Ġcast": 1307,
      "Ġrel": 1308,
      "Ġtable": 1309,
      "asure": 1310,
      "Ġbuild": 1311,
      "ĠSally": 1312,
      "Ġarm": 1313,
      "Ġwonderful": 1314,
      "Ġforgot": 1315,
      "Ġmight": 1316,
      "Ġarrived": 1317,
      "ds": 1318,
      "ield": 1319,
      "Ġunderstand": 1320,
      "Ġdelicious": 1321,
      "Ġagre": 1322,
      "Ġel": 1323,
      "Ġtight": 1324,
      "Ġhot": 1325,
      "Ġplease": 1326,
      "Ġcolors": 1327,
      "Ġgrandma": 1328,
      "Ġsomeone": 1329,
      "ner": 1330,
      "Ġsong": 1331,
      "Ġcount": 1332,
      "Ġbooks": 1333,
      "Ġfilled": 1334,
      "Ġgone": 1335,
      "Ġcontinued": 1336,
      "Ġbroken": 1337,
      "Ġable": 1338,
      "Then": 1339,
      "Ġleaves": 1340,
      "Ġscre": 1341,
      "ĠNow": 1342,
      "Ġgent": 1343,
      "av": 1344,
      "Ġelse": 1345,
      "ĠThere": 1346,
      "Ġwants": 1347,
      "Ġcreat": 1348,
      "ask": 1349,
      "sp": 1350,
      "ĠLila": 1351,
      "Ġvis": 1352,
      "Ġwall": 1353,
      "lf": 1354,
      "From": 1355,
      "ĠEm": 1356,
      "ey": 1357,
      "Ġyes": 1358,
      "Ġbaby": 1359,
      "uffy": 1360,
      "Ġpink": 1361,
      "atter": 1362,
      "Ġbreak": 1363,
      "room": 1364,
      "man": 1365,
      "ich": 1366,
      "Ġpoin": 1367,
      "gon": 1368,
      "Ġamazing": 1369,
      "'ll": 1370,
      "ries": 1371,
      "Jack": 1372,
      "Ġmar": 1373,
      "Ġgetting": 1374,
      "ĠMaybe": 1375,
      "icy": 1376,
      "ĠDaisy": 1377,
      "Ġenough": 1378,
      "Ġpictures": 1379,
      "Ġfight": 1380,
      "OK": 1381,
      "Ġwhite": 1382,
      "oup": 1383,
      "Ġcomp": 1384,
      "Ġcastle": 1385,
      "Ġdinner": 1386,
      "Ġagreed": 1387,
      "row": 1388,
      "irrel": 1389,
      "Ġmus": 1390,
      "Ġmoment": 1391,
      "ross": 1392,
      "Ġmother": 1393,
      "Ġstayed": 1394,
      "Ġfall": 1395,
      "ash": 1396,
      "Ġmorning": 1397,
      "Ġcookies": 1398,
      "ced": 1399,
      "Ġscary": 1400,
      "Ġtrying": 1401,
      "Ġfinally": 1402,
      "Ġclimbed": 1403,
      "Ġfur": 1404,
      "Ġsometimes": 1405,
      "Ġsail": 1406,
      "Ġothers": 1407,
      "ĠK": 1408,
      "Ġwet": 1409,
      "Ġpi": 1410,
      "Ġju": 1411,
      "Ġsmiles": 1412,
      "Ġhungry": 1413,
      "ctor": 1414,
      "Ġsquirrel": 1415,
      "Ġtalk": 1416,
      "ence": 1417,
      "ons": 1418,
      "Ġclot": 1419,
      "Ġmet": 1420,
      "Ġclothes": 1421,
      "At": 1422,
      "Ġbrought": 1423,
      "ama": 1424,
      "ister": 1425,
      "red": 1426,
      "oom": 1427,
      "Ġturned": 1428,
      "ĠThis": 1429,
      "Ġperfect": 1430,
      "Ġroll": 1431,
      "Ġdaddy": 1432,
      "lc": 1433,
      "Ġmakes": 1434,
      "Ġcream": 1435,
      "ĠBilly": 1436,
      "This": 1437,
      "Ġfew": 1438,
      "Ġlistened": 1439,
      "oring": 1440,
      "Ġtail": 1441,
      "ee": 1442,
      "Ġwasn": 1443,
      "Ġeverything": 1444,
      "ance": 1445,
      "Ġspl": 1446,
      "Ġstrange": 1447,
      "rot": 1448,
      "Ġsear": 1449,
      "Ġballoon": 1450,
      "Ġbeach": 1451,
      "Ġpol": 1452,
      "Ġpuppy": 1453,
      "Ġjoy": 1454,
      "Ġsit": 1455,
      "ated": 1456,
      "ower": 1457,
      "Ġride": 1458,
      "der": 1459,
      "His": 1460,
      "zz": 1461,
      "Ġwaited": 1462,
      "Ġspark": 1463,
      "ĠJen": 1464,
      "Ġthre": 1465,
      "ĠWhat": 1466,
      "Ġmusic": 1467,
      "wl": 1468,
      "Ġamazed": 1469,
      "ever": 1470,
      "ĠGra": 1471,
      "Ġalone": 1472,
      "ĠTommy": 1473,
      "os": 1474,
      "amp": 1475,
      "pping": 1476,
      "Ġvisit": 1477,
      "Ġsilly": 1478,
      "Ġdanger": 1479,
      "ucky": 1480,
      "Ġteddy": 1481,
      "key": 1482,
      "ott": 1483,
      "Ġasks": 1484,
      "Ġpet": 1485,
      "Ġwoods": 1486,
      "ĠTo": 1487,
      "ope": 1488,
      "Ġdeep": 1489,
      "ang": 1490,
      "Ġhide": 1491,
      "eter": 1492,
      "Ġgrow": 1493,
      "Oh": 1494,
      "Ġleave": 1495,
      "Ġsister": 1496,
      "Ġside": 1497,
      "Ġpie": 1498,
      "ugg": 1499,
      "Ġcloud": 1500,
      "amed": 1501,
      "Ġflying": 1502,
      "med": 1503,
      "Ġlake": 1504,
      "Ġpulled": 1505,
      "Max": 1506,
      "Ġfox": 1507,
      "Ġpromised": 1508,
      "Ġpat": 1509,
      "gg": 1510,
      "ix": 1511,
      "ĠFl": 1512,
      "Ġdance": 1513,
      "Ġtowards": 1514,
      "eces": 1515,
      "Ġtreasure": 1516,
      "me": 1517,
      "Ġsec": 1518,
      "Ġfield": 1519,
      "ames": 1520,
      "ph": 1521,
      "Ġpieces": 1522,
      "ises": 1523,
      "Ġplan": 1524,
      "Maybe": 1525,
      "up": 1526,
      "Ġruns": 1527,
      "Ġshared": 1528,
      "Ġbigger": 1529,
      "cket": 1530,
      "ained": 1531,
      "Ġve": 1532,
      "Ġwon": 1533,
      "Ġthinks": 1534,
      "Ġem": 1535,
      "Ġland": 1536,
      "Ġmoral": 1537,
      "thy": 1538,
      "Ġtreat": 1539,
      "Okay": 1540,
      "Ġowner": 1541,
      "Ġliving": 1542,
      "Ġpen": 1543,
      "Ġele": 1544,
      "Ġbran": 1545,
      "Ġgrate": 1546,
      "ĠAll": 1547,
      "Ġbott": 1548,
      "Ġdolls": 1549,
      "Ġshar": 1550,
      "Ġcandy": 1551,
      "igg": 1552,
      "avy": 1553,
      "Ġparty": 1554,
      "Ġgu": 1555,
      "Ġeverywhere": 1556,
      "Ġgrateful": 1557,
      "cle": 1558,
      "set": 1559,
      "Ġcup": 1560,
      "Ġblank": 1561,
      "Ġbike": 1562,
      "Ġslowly": 1563,
      "outh": 1564,
      "Ġpaint": 1565,
      "Ġjob": 1566,
      "Ġsuch": 1567,
      "sw": 1568,
      "Ġbelie": 1569,
      "Ġworried": 1570,
      "Ġmouth": 1571,
      "Ġwelc": 1572,
      "ĠAmy": 1573,
      "Ġjoin": 1574,
      "Ġblanket": 1575,
      "Ġfaster": 1576,
      "Ġplant": 1577,
      "fort": 1578,
      "ret": 1579,
      "ually": 1580,
      "Ġansw": 1581,
      "Ġbroke": 1582,
      "Ġmoney": 1583,
      "unch": 1584,
      "ling": 1585,
      "iet": 1586,
      "Ġshap": 1587,
      "Ġgif": 1588,
      "Ġreach": 1589,
      "Ġmagical": 1590,
      "Ġsnack": 1591,
      "Ġbar": 1592,
      "Ġcolorful": 1593,
      "ire": 1594,
      "ident": 1595,
      "Ġhelping": 1596,
      "ased": 1597,
      "Ġprincess": 1598,
      "Ġdoctor": 1599,
      "Ġcho": 1600,
      "Ġrace": 1601,
      "Ġdragon": 1602,
      "Ġacc": 1603,
      "Ġriver": 1604,
      "ĠJim": 1605,
      "Sure": 1606,
      "Ġnap": 1607,
      "Ġpro": 1608,
      "Ġsign": 1609,
      "less": 1610,
      "Ġquiet": 1611,
      "Ġcrying": 1612,
      "orm": 1613,
      "ipped": 1614,
      "ze": 1615,
      "Ġblack": 1616,
      "app": 1617,
      "Ġmost": 1618,
      "ol": 1619,
      "Ġdangerous": 1620,
      "Ġstepped": 1621,
      "Ġtrain": 1622,
      "Ġsmart": 1623,
      "Ġatt": 1624,
      "Ġbowl": 1625,
      "Ġfarmer": 1626,
      "Ġmix": 1627,
      "Ġheavy": 1628,
      "Ġpot": 1629,
      "Ġmonster": 1630,
      "ere": 1631,
      "ored": 1632,
      "Ġje": 1633,
      "ming": 1634,
      "bble": 1635,
      "Ġtwins": 1636,
      "Ġwords": 1637,
      "Ġacross": 1638,
      "Ġdirty": 1639,
      "ear": 1640,
      "Ġdisapp": 1641,
      "Ġsame": 1642,
      "Ġeating": 1643,
      "Ġstuck": 1644,
      "ĠJill": 1645,
      "Ġclosed": 1646,
      "ĠMr": 1647,
      "Ġfruit": 1648,
      "Ġthrew": 1649,
      "Ġmust": 1650,
      "Ġtower": 1651,
      "Ġwouldn": 1652,
      "Ġbuck": 1653,
      "cked": 1654,
      "ĠMolly": 1655,
      "Ġspr": 1656,
      "Ġhig": 1657,
      "Ġwin": 1658,
      "Ġaccident": 1659,
      "Ġcray": 1660,
      "Ġmonkey": 1661,
      "Ġcarrot": 1662,
      "Why": 1663,
      "ord": 1664,
      "Ġbath": 1665,
      "Ġheal": 1666,
      "Ġfeels": 1667,
      "Ġteac": 1668,
      "iting": 1669,
      "Ġbite": 1670,
      "eared": 1671,
      "Hi": 1672,
      "asket": 1673,
      "umb": 1674,
      "Ġpushed": 1675,
      "Ġbutt": 1676,
      "Ġtown": 1677,
      "chool": 1678,
      "Ġpast": 1679,
      "Ġbasket": 1680,
      "Ġheart": 1681,
      "Ġhoped": 1682,
      "br": 1683,
      "Ġwithout": 1684,
      "Ġhit": 1685,
      "Ġcoll": 1686,
      "Ġclapped": 1687,
      "Ġpack": 1688,
      "Ġbelieve": 1689,
      "Ġstand": 1690,
      "Ġpers": 1691,
      "Ġforget": 1692,
      "Mia": 1693,
      "Ġschool": 1694,
      "Ġfairy": 1695,
      "Ġcheered": 1696,
      "phant": 1697,
      "Ġbee": 1698,
      "Ġsmo": 1699,
      "ĠFluffy": 1700,
      "Ġfence": 1701,
      "Ġlon": 1702,
      "de": 1703,
      "orrow": 1704,
      "Ġcour": 1705,
      "Ġyard": 1706,
      "Ġbrown": 1707,
      "Ġchair": 1708,
      "ĠDaddy": 1709,
      "Ġdrove": 1710,
      "ract": 1711,
      "Ġadventures": 1712,
      "Ġnoises": 1713,
      "ier": 1714,
      "ventually": 1715,
      "Ġhigher": 1716,
      "Ġlonely": 1717,
      "ass": 1718,
      "Ġca": 1719,
      "Ġelephant": 1720,
      "Ġteacher": 1721,
      "Ġtoday": 1722,
      "ors": 1723,
      "ney": 1724,
      "Ġpocket": 1725,
      "Ġupset": 1726,
      "cy": 1727,
      "vel": 1728,
      "Ġturns": 1729,
      "Ġswings": 1730,
      "Ġgentle": 1731,
      "Ġlonger": 1732,
      "Finally": 1733,
      "Ġwings": 1734,
      "Ġwelcome": 1735,
      "ho": 1736,
      "Ġfree": 1737,
      "Ġgames": 1738,
      "ts": 1739,
      "Ġcourse": 1740,
      "Ġben": 1741,
      "Ġexplained": 1742,
      "Ġneck": 1743,
      "Ġsuddenly": 1744,
      "Ġleg": 1745,
      "Ġjour": 1746,
      "Ġsecret": 1747,
      "Lila": 1748,
      "ead": 1749,
      "Ġstar": 1750,
      "issed": 1751,
      "ountain": 1752,
      "Ġwhe": 1753,
      "Ġdry": 1754,
      "Ġcorn": 1755,
      "Ġsoup": 1756,
      "Ġbring": 1757,
      "Ġshop": 1758,
      "Ġinst": 1759,
      "Ġhappen": 1760,
      "Ġneigh": 1761,
      "Ġdropped": 1762,
      "Ġplac": 1763,
      "Ġhugs": 1764,
      "yard": 1765,
      "Ġtrou": 1766,
      "Ġpiece": 1767,
      "weet": 1768,
      "Ġmin": 1769,
      "Ġthrow": 1770,
      "Ġneighb": 1771,
      "Ġswam": 1772,
      "ible": 1773,
      "Ġstories": 1774,
      "Ġsang": 1775,
      "Ġbackyard": 1776,
      "itting": 1777,
      "ush": 1778,
      "ĠEmma": 1779,
      "pper": 1780,
      "ment": 1781,
      "Ġwish": 1782,
      "Ġrocks": 1783,
      "Ġbucket": 1784,
      "Ġwell": 1785,
      "Ġlate": 1786,
      "ek": 1787,
      "Ġnaught": 1788,
      "Ġapple": 1789,
      "Ġbelong": 1790,
      "Ġowl": 1791,
      "Ġph": 1792,
      "ches": 1793,
      "Ġnaughty": 1794,
      "ces": 1795,
      "Ġtaking": 1796,
      "Ġorange": 1797,
      "Ġalong": 1798,
      "Ġlunch": 1799,
      "ocked": 1800,
      "Ġdrink": 1801,
      "fused": 1802,
      "ung": 1803,
      "Ġjar": 1804,
      "Ġexploring": 1805,
      "Ġexp": 1806,
      "Ġcou": 1807,
      "Ġsea": 1808,
      "Ġes": 1809,
      "Ġyoung": 1810,
      "bow": 1811,
      "Ġdist": 1812,
      "Ġseemed": 1813,
      "Ġsinging": 1814,
      "oun": 1815,
      "Ġshook": 1816,
      "Ġmat": 1817,
      "Ġcaught": 1818,
      "Ġmoved": 1819,
      "Ġwar": 1820,
      "Ġnearby": 1821,
      "Ġpig": 1822,
      "Ġwise": 1823,
      "Ġkey": 1824,
      "Ġshoes": 1825,
      "Ġstars": 1826,
      "Ġtiny": 1827,
      "Ġthough": 1828,
      "Ġwoke": 1829,
      "Ġtom": 1830,
      "Ġdes": 1831,
      "Ġmiss": 1832,
      "Ġaf": 1833,
      "llo": 1834,
      "ĠGrandma": 1835,
      "Ġmail": 1836,
      "ail": 1837,
      "ions": 1838,
      "vered": 1839,
      "Do": 1840,
      "cer": 1841,
      "Ġsick": 1842,
      "col": 1843,
      "ĠThank": 1844,
      "Ġbench": 1845,
      "Ġcarry": 1846,
      "ape": 1847,
      "Ġrelie": 1848,
      "Ġresp": 1849,
      "Ġsu": 1850,
      "Ġnest": 1851,
      "Ġshapes": 1852,
      "cing": 1853,
      "ittens": 1854,
      "sy": 1855,
      "Ġrainbow": 1856,
      "Ġarms": 1857,
      "idge": 1858,
      "Ġbranch": 1859,
      "Ġkite": 1860,
      "Ġmine": 1861,
      "Ġdriver": 1862,
      "Ġjuice": 1863,
      "Ġtakes": 1864,
      "Ġbusy": 1865,
      "Ġob": 1866,
      "aughter": 1867,
      "raid": 1868,
      "Ġafraid": 1869,
      "let": 1870,
      "ĠMary": 1871,
      "Ġwondered": 1872,
      "itch": 1873,
      "Ġmad": 1874,
      "ward": 1875,
      "Ġcir": 1876,
      "Ġsitting": 1877,
      "ining": 1878,
      "Ġcow": 1879,
      "Ġmark": 1880,
      "ese": 1881,
      "Ġmil": 1882,
      "cks": 1883,
      "Ġstreet": 1884,
      "And": 1885,
      "Ġcomes": 1886,
      "Ġinv": 1887,
      "Ġaccidentally": 1888,
      "Ġround": 1889,
      "Ġnose": 1890,
      "Ġdisco": 1891,
      "Ġking": 1892,
      "Ġforever": 1893,
      "Ġ3": 1894,
      "Later": 1895,
      "Ġyear": 1896,
      "Ġfarm": 1897,
      "Ġwhist": 1898,
      "Ġband": 1899,
      "Ġpeace": 1900,
      "Ġdaughter": 1901,
      "Ġlift": 1902,
      "Ġsounds": 1903,
      "sting": 1904,
      "Ġgift": 1905,
      "Ġstu": 1906,
      "ĠFinally": 1907,
      "to": 1908,
      "Ġegg": 1909,
      "Ġcute": 1910,
      "bby": 1911,
      "thday": 1912,
      "ball": 1913,
      "Ġexciting": 1914,
      "adow": 1915,
      "Ġcozy": 1916,
      "Ġfit": 1917,
      "ity": 1918,
      "Ġletter": 1919,
      "Ġpurp": 1920,
      "ĠInside": 1921,
      "Ġcoat": 1922,
      "Ġwra": 1923,
      "Ġboun": 1924,
      "Ġpower": 1925,
      "ours": 1926,
      "Ġrelieved": 1927,
      "Ġhello": 1928,
      "Ġnothing": 1929,
      "Ġpatient": 1930,
      "Ġintere": 1931,
      "Ġholding": 1932,
      "Ġlaughing": 1933,
      "Ġhuge": 1934,
      "Ġjourney": 1935,
      "Of": 1936,
      "Ġmist": 1937,
      "ĠTweet": 1938,
      "shine": 1939,
      "Ġimag": 1940,
      "Ġspoon": 1941,
      "ĠSoon": 1942,
      "Ġswimming": 1943,
      "Ġgigg": 1944,
      "itten": 1945,
      "Ġmilk": 1946,
      "Ġdays": 1947,
      "Ġsunshine": 1948,
      "Ġlife": 1949,
      "Ġcomfort": 1950,
      "Ġfing": 1951,
      "Ġpurple": 1952,
      "gged": 1953,
      "uched": 1954,
      "Ġtouched": 1955,
      "Ġlater": 1956,
      "ĠCome": 1957,
      "ĠMama": 1958,
      "Ġinstead": 1959,
      "Ġact": 1960,
      "Ġbirthday": 1961,
      "irt": 1962,
      "eth": 1963,
      "ĠO": 1964,
      "Ġroad": 1965,
      "Ġcheese": 1966,
      "Ġinc": 1967,
      "fish": 1968,
      "Ġear": 1969,
      "Ġsunny": 1970,
      "unt": 1971,
      "alm": 1972,
      "Ġret": 1973,
      "Ġgives": 1974,
      "Ġsearched": 1975,
      "ped": 1976,
      "Ġbought": 1977,
      "Ġfan": 1978,
      "Ġbread": 1979,
      "Ġpointed": 1980,
      "ness": 1981,
      "Ġanyone": 1982,
      "Ġonto": 1983,
      "Ġbottle": 1984,
      "board": 1985,
      "Ġpres": 1986,
      "Ġducks": 1987,
      "ize": 1988,
      "Ġstorm": 1989,
      "sc": 1990,
      "ose": 1991,
      "Ġhope": 1992,
      "Ġreturn": 1993,
      "Ġlucky": 1994,
      "Ġplane": 1995,
      "ĠSammy": 1996,
      "Ġtasty": 1997,
      "Ġcave": 1998,
      "Ġcreature": 1999,
      "Ġwatching": 2000,
      "blem": 2001,
      "Ġgrab": 2002,
      "Ġpudd": 2003,
      "Hey": 2004,
      "Ġproblem": 2005,
      "Ġce": 2006,
      "Ġsmiling": 2007,
      "ndp": 2008,
      "Ġrope": 2009,
      "Ġkick": 2010,
      "Ġspo": 2011,
      "Ġcrayons": 2012,
      "Ġshell": 2013,
      "Ġeas": 2014,
      "Ġsharp": 2015,
      "aur": 2016,
      "Ġspid": 2017,
      "els": 2018,
      "Ġmeet": 2019,
      "Ġpromise": 2020,
      "Ġsnowman": 2021,
      "Ġperson": 2022,
      "Ġhoney": 2023,
      "Ġdanced": 2024,
      "ond": 2025,
      "Ġpuzz": 2026,
      "epend": 2027,
      "Ġinteresting": 2028,
      "ten": 2029,
      "Ġtalked": 2030,
      "Ġsandw": 2031,
      "Ġbutton": 2032,
      "Ġquest": 2033,
      "Ġcollect": 2034,
      "og": 2035,
      "ove": 2036,
      "Ġzoom": 2037,
      "Ġtrouble": 2038,
      "Ġwide": 2039,
      "Ġcard": 2040,
      "Ġkiss": 2041,
      "ometimes": 2042,
      "itty": 2043,
      "Bob": 2044,
      "Ġsmelled": 2045,
      "Ġspin": 2046,
      "Ġpresent": 2047,
      "Ġent": 2048,
      "Ġap": 2049,
      "Ġlovely": 2050,
      "Ġapples": 2051,
      "Ġpract": 2052,
      "Ġadm": 2053,
      "Ġwrite": 2054,
      "Ġbush": 2055,
      "Ġgiant": 2056,
      "ĠJimmy": 2057,
      "Ġhealthy": 2058,
      "ont": 2059,
      "Ġclouds": 2060,
      "Ġpill": 2061,
      "Ġshining": 2062,
      "Ġgather": 2063,
      "izz": 2064,
      "Ġpar": 2065,
      "umber": 2066,
      "Ġrolled": 2067,
      "isa": 2068,
      "Ġcheer": 2069,
      "Tommy": 2070,
      "Ġplaces": 2071,
      "Good": 2072,
      "Ġfront": 2073,
      "ndpa": 2074,
      "Ġputs": 2075,
      "owed": 2076,
      "Ġwhich": 2077,
      "Ġloves": 2078,
      "Ġsaf": 2079,
      "Ġvill": 2080,
      "Ġsur": 2081,
      "Ġpath": 2082,
      "ĠMittens": 2083,
      "lla": 2084,
      "Ġspotted": 2085,
      "ub": 2086,
      "Ġtun": 2087,
      "Ġhon": 2088,
      "Ġworm": 2089,
      "Ġimpre": 2090,
      "Ġclever": 2091,
      "Ġshr": 2092,
      "Ġorgan": 2093,
      "Ġmyster": 2094,
      "bar": 2095,
      "Ġlay": 2096,
      "Ġmatter": 2097,
      "Ġfeather": 2098,
      "Ġtasted": 2099,
      "Ġwild": 2100,
      "Ġdi": 2101,
      "Ġeag": 2102,
      "Ġzoo": 2103,
      "Ġmed": 2104,
      "Ġtrip": 2105,
      "Ġprot": 2106,
      "Ġrespect": 2107,
      "een": 2108,
      "Ġbark": 2109,
      "Ġhor": 2110,
      "Ġcouch": 2111,
      "Ġsuc": 2112,
      "Ġthin": 2113,
      "Ġpop": 2114,
      "Ġwhole": 2115,
      "Lucy": 2116,
      "ching": 2117,
      "Ġfoot": 2118,
      "Ġprotect": 2119,
      "erly": 2120,
      "Ġasleep": 2121,
      "Ġpile": 2122,
      "Ġspent": 2123,
      "ular": 2124,
      "St": 2125,
      "Ġbuilding": 2126,
      "Ġdirt": 2127,
      "cean": 2128,
      "Ġocean": 2129,
      "Ġlad": 2130,
      "Ġknee": 2131,
      "la": 2132,
      "Ġgoes": 2133,
      "Ġcoin": 2134,
      "Ġspider": 2135,
      "Ġwearing": 2136,
      "barra": 2137,
      "Ġmountain": 2138,
      "Ġpretended": 2139,
      "Ġembarra": 2140,
      "eb": 2141,
      "nic": 2142,
      "Every": 2143,
      "Ġslid": 2144,
      "Ġpicnic": 2145,
      "Ġscreamed": 2146,
      "Ġfaces": 2147,
      "Ġteach": 2148,
      "Ġphone": 2149,
      "hile": 2150,
      "Ġsack": 2151,
      "Ġsnake": 2152,
      "Ġanswer": 2153,
      "ĠWith": 2154,
      "Ġseat": 2155,
      "Ġconfused": 2156,
      "Ġappeared": 2157,
      "Come": 2158,
      "oose": 2159,
      "Jim": 2160,
      "Ġtalking": 2161,
      "Ġgently": 2162,
      "ife": 2163,
      "Ġsal": 2164,
      "Ġfurry": 2165,
      "ex": 2166,
      "Ġhelpful": 2167,
      "Ġmud": 2168,
      "Ġdrive": 2169,
      "Ġmind": 2170,
      "lex": 2171,
      "Ġpan": 2172,
      "Ġpass": 2173,
      "Ġladder": 2174,
      "Ġsupp": 2175,
      "Ġoven": 2176,
      "Ġign": 2177,
      "Ġcart": 2178,
      "Ġpush": 2179,
      "In": 2180,
      "ale": 2181,
      "Ġser": 2182,
      "Ġrec": 2183,
      "Ġwhenever": 2184,
      "arge": 2185,
      "Ġval": 2186,
      "Ġcorner": 2187,
      "unk": 2188,
      "Ġwom": 2189,
      "Ġchocol": 2190,
      "Ġcalm": 2191,
      "Ġsplas": 2192,
      "Ġwoman": 2193,
      "Ġban": 2194,
      "ĠHow": 2195,
      "ÅĵI": 2196,
      "Ġneighbor": 2197,
      "Just": 2198,
      "Ġlast": 2199,
      "ĠGo": 2200,
      "Ġtool": 2201,
      "Ġmach": 2202,
      "ĠSometimes": 2203,
      "Molly": 2204,
      "Ġblew": 2205,
      "Ġfixed": 2206,
      "read": 2207,
      "Ġring": 2208,
      "Ġfighting": 2209,
      "Ġfinish": 2210,
      "Ġwaiting": 2211,
      "Ġwave": 2212,
      "Ġspicy": 2213,
      "Ġforgive": 2214,
      "Ġtid": 2215,
      "ert": 2216,
      "bbles": 2217,
      "ĠAl": 2218,
      "Ġfeet": 2219,
      "Ġminut": 2220,
      "Ġspread": 2221,
      "Ġdelight": 2222,
      "Ġash": 2223,
      "Ġtaste": 2224,
      "Ġeventually": 2225,
      "Ġteeth": 2226,
      "Ġlive": 2227,
      "Ġembarrassed": 2228,
      "Ġpour": 2229,
      "Ġhorse": 2230,
      "Ġtomorrow": 2231,
      "Soon": 2232,
      "Ġremind": 2233,
      "Ġbell": 2234,
      "Mum": 2235,
      "Ġscar": 2236,
      "Ġcookie": 2237,
      "Ġsmooth": 2238,
      "Ġrocket": 2239,
      "ones": 2240,
      "Ġant": 2241,
      "Ġshy": 2242,
      "Ġcloth": 2243,
      "Ġfold": 2244,
      "ĠEmily": 2245,
      "Ġchocolate": 2246,
      "mo": 2247,
      "Ġtries": 2248,
      "ĠCh": 2249,
      "Ġcolour": 2250,
      "Ġstep": 2251,
      "oph": 2252,
      "old": 2253,
      "Ġlarge": 2254,
      "Ġtea": 2255,
      "Ġsongs": 2256,
      "Ġneckl": 2257,
      "Ġhiding": 2258,
      "Ġbanan": 2259,
      "ĠJenny": 2260,
      "Ġkitten": 2261,
      "Ġpaw": 2262,
      "Ġspray": 2263,
      "Ġspe": 2264,
      "urse": 2265,
      "Ġrob": 2266,
      "Ġhum": 2267,
      "Ġpool": 2268,
      "Ġshirt": 2269,
      "Ġple": 2270,
      "Ġemp": 2271,
      "Ġwash": 2272,
      "Ġcann": 2273,
      "Ġpizz": 2274,
      "Ġempty": 2275,
      "nny": 2276,
      "ungle": 2277,
      "Ġvillage": 2278,
      "Ġcreative": 2279,
      "lebr": 2280,
      "Ġjungle": 2281,
      "Ġgrew": 2282,
      "Ġbugs": 2283,
      "Ġtightly": 2284,
      "Ġtidy": 2285,
      "als": 2286,
      "getable": 2287,
      "Ġcannot": 2288,
      "ĠSt": 2289,
      "dge": 2290,
      "Ġcoo": 2291,
      "Ġknocked": 2292,
      "Ġvegetable": 2293,
      "Ġwhistle": 2294,
      "Ġsol": 2295,
      "Ġrep": 2296,
      "Ġcelebr": 2297,
      "umpy": 2298,
      "ato": 2299,
      "hnny": 2300,
      "ĠTV": 2301,
      "den": 2302,
      "Ġchick": 2303,
      "My": 2304,
      "Ġrude": 2305,
      "Ġwore": 2306,
      "Ġtrust": 2307,
      "Ġhar": 2308,
      "ĠSome": 2309,
      "airs": 2310,
      "Ġbarked": 2311,
      "Ġrobot": 2312,
      "Ġwip": 2313,
      "Ġpeaceful": 2314,
      "Now": 2315,
      "Ġsparkly": 2316,
      "Ġpuddle": 2317,
      "Ġnecklace": 2318,
      "ground": 2319,
      "Ġhears": 2320,
      "Ġchased": 2321,
      "ighed": 2322,
      "ĠEverywhere": 2323,
      "Ġpizza": 2324,
      "ĠPlease": 2325,
      "Ġstret": 2326,
      "Ġsel": 2327,
      "Ġstir": 2328,
      "ĠJust": 2329,
      "Ġmeant": 2330,
      "ĠLe": 2331,
      "ned": 2332,
      "Ġbal": 2333,
      "Ġmoon": 2334,
      "Ġmaybe": 2335,
      "Ġgun": 2336,
      "Ġstra": 2337,
      "Ġpuzzle": 2338,
      "Ġhidden": 2339,
      "Ġpin": 2340,
      "Ġnet": 2341,
      "Ġsave": 2342,
      "ian": 2343,
      "Ġtreats": 2344,
      "Ġgen": 2345,
      "Ġmeadow": 2346,
      "ĠOn": 2347,
      "Ġcarrots": 2348,
      "inted": 2349,
      "lower": 2350,
      "era": 2351,
      "box": 2352,
      "Ġmot": 2353,
      "Ġsticks": 2354,
      "Ġsnacks": 2355,
      "dle": 2356,
      "Ġcarried": 2357,
      "Ġmissed": 2358,
      "ĠTheir": 2359,
      "gly": 2360,
      "ustr": 2361,
      "Ġforward": 2362,
      "ult": 2363,
      "Ġseed": 2364,
      "Ġflut": 2365,
      "Ġtells": 2366,
      "Ġsplash": 2367,
      "Ġav": 2368,
      "Ġgroup": 2369,
      "Ġsour": 2370,
      "Ġbat": 2371,
      "Ġcrab": 2372,
      "Ġprince": 2373,
      "Ġmachine": 2374,
      "Ġshelf": 2375,
      "Ġber": 2376,
      "ĠJake": 2377,
      "Ġclear": 2378,
      "Ġugly": 2379,
      "Ġstring": 2380,
      "Ġselfish": 2381,
      "Ġ'": 2382,
      "Ġjumping": 2383,
      "Ġdisappo": 2384,
      "ird": 2385,
      "Dad": 2386,
      "ĠTeddy": 2387,
      "aul": 2388,
      "Ġgold": 2389,
      "iger": 2390,
      "Ġlem": 2391,
      "elly": 2392,
      "kin": 2393,
      "Ġfrustr": 2394,
      "Ġleaf": 2395,
      "Ġburn": 2396,
      "Ġknowing": 2397,
      "Ġgray": 2398,
      "Ġstood": 2399,
      "ĠLisa": 2400,
      "ying": 2401,
      "Ġroar": 2402,
      "Ġyelled": 2403,
      "Ġpolice": 2404,
      "Ġlanded": 2405,
      "Ġlegs": 2406,
      "Please": 2407,
      "itter": 2408,
      "Ġsharing": 2409,
      "most": 2410,
      "Ġhonest": 2411,
      "Ġpir": 2412,
      "Ġcirc": 2413,
      "ator": 2414,
      "Ġstone": 2415,
      "eterm": 2416,
      "hin": 2417,
      "Ġwhis": 2418,
      "Ġblow": 2419,
      "Ġdeterm": 2420,
      "ĠWhy": 2421,
      "Ġstanding": 2422,
      "ĠMum": 2423,
      "ĠTogether": 2424,
      "Ġplate": 2425,
      "Ġdrew": 2426,
      "Ġbreath": 2427,
      "Ġalmost": 2428,
      "Ġgar": 2429,
      "Ġnods": 2430,
      "vous": 2431,
      "Ġfancy": 2432,
      "Ġfrustrated": 2433,
      "Ġnumber": 2434,
      "Ġseek": 2435,
      "Stop": 2436,
      "Ġdisappointed": 2437,
      "Ġtest": 2438,
      "Ġsleepy": 2439,
      "To": 2440,
      "orry": 2441,
      "iff": 2442,
      "Ġthese": 2443,
      "ital": 2444,
      "Mama": 2445,
      "aking": 2446,
      "There": 2447,
      "uce": 2448,
      "Ġfear": 2449,
      "Ġscream": 2450,
      "Ġpowerful": 2451,
      "Ġmysterious": 2452,
      "Ġfeed": 2453,
      "Ġpillow": 2454,
      "Be": 2455,
      "ser": 2456,
      "Ġhours": 2457,
      "Ġgener": 2458,
      "Ġpolite": 2459,
      "ĠBr": 2460,
      "ĠAnn": 2461,
      "Ġhosp": 2462,
      "Ġfil": 2463,
      "Ġcro": 2464,
      "pack": 2465,
      "Ġhospital": 2466,
      "Ġline": 2467,
      "Ġgas": 2468,
      "Ġjew": 2469,
      "Ġmedic": 2470,
      "Ġashamed": 2471,
      "ffe": 2472,
      "Ġplants": 2473,
      "Ġcries": 2474,
      "Ġdecor": 2475,
      "ĠEven": 2476,
      "ecially": 2477,
      "Ġner": 2478,
      "ote": 2479,
      "ets": 2480,
      "Ġreg": 2481,
      "ĠPeter": 2482,
      "Ġreturned": 2483,
      "issors": 2484,
      "ual": 2485,
      "izzy": 2486,
      "Ġunderstood": 2487,
      "Ġsheep": 2488,
      "Ġscissors": 2489,
      "Ġmedicine": 2490,
      "Ġnervous": 2491,
      "Ġwhisp": 2492,
      "ĠDon": 2493,
      "Ġtwirl": 2494,
      "ensive": 2495,
      "Ġexpensive": 2496,
      "Ġspoil": 2497,
      "pecially": 2498,
      "ony": 2499,
      "Ġshore": 2500,
      "Ġpacked": 2501,
      "Ġespecially": 2502,
      "sist": 2503,
      "Ġscarf": 2504,
      "osaur": 2505,
      "Ġbored": 2506,
      "ĠBe": 2507,
      "Ġpay": 2508,
      "Ġdancing": 2509,
      "Ġpassed": 2510,
      "Ġsandwich": 2511,
      "Ġvegetables": 2512,
      "Ġnut": 2513,
      "Ġtaught": 2514,
      "Ġvan": 2515,
      "Ġgarage": 2516,
      "Ġsaved": 2517,
      "Ġpoor": 2518,
      "Ġgrumpy": 2519,
      "usie": 2520,
      "Ġcloset": 2521,
      "light": 2522,
      "ina": 2523,
      "Ġpri": 2524,
      "Ġbecome": 2525,
      "Ġhel": 2526,
      "Ġmummy": 2527,
      "Ġruined": 2528,
      "Ġscr": 2529,
      "Ġtaken": 2530,
      "Ġfinger": 2531,
      "Ġgate": 2532,
      "'d": 2533,
      "Ġdrum": 2534,
      "Ġcomfortable": 2535,
      "Ġfill": 2536,
      "Ġmessy": 2537,
      "iddle": 2538,
      "Ġcand": 2539,
      "ĠRex": 2540,
      "Ġdinosaur": 2541,
      "Ġsold": 2542,
      "Ġbedroom": 2543,
      "Ġeasy": 2544,
      "Ġones": 2545,
      "Ġexam": 2546,
      "Ġgenerous": 2547,
      "oop": 2548,
      "Ġpleased": 2549,
      "Ġasking": 2550,
      "ano": 2551,
      "Ġclass": 2552,
      "Ġsuccess": 2553,
      "ym": 2554,
      "Ġwis": 2555,
      "Ġyourself": 2556,
      "Jane": 2557,
      "imp": 2558,
      "Ġworking": 2559,
      "Ġdetermined": 2560,
      "Ġship": 2561,
      "Ġpray": 2562,
      "Ġglue": 2563,
      "Ġfig": 2564,
      "Ġhopping": 2565,
      "Ġgiggled": 2566,
      "Ġsailed": 2567,
      "Ġboring": 2568,
      "Ġstuff": 2569,
      "Ġballs": 2570,
      "ĠLeo": 2571,
      "Ġmotor": 2572,
      "Ġcri": 2573,
      "Ġwagged": 2574,
      "Ġvase": 2575,
      "Ġglass": 2576,
      "Jimmy": 2577,
      "Ġkissed": 2578,
      "Where": 2579,
      "Ġhur": 2580,
      "Ġmov": 2581,
      "ĠKitty": 2582,
      "Ġmistake": 2583,
      "Ġoften": 2584,
      "ĠOK": 2585,
      "Ġsighed": 2586,
      "ates": 2587,
      "Ġdest": 2588,
      "Ġplayground": 2589,
      "Ġexcite": 2590,
      "Ġesc": 2591,
      "Ġminutes": 2592,
      "erp": 2593,
      "Ġtrue": 2594,
      "Ġwheel": 2595,
      "Ġlead": 2596,
      "Ġbrush": 2597,
      "ĠJohnny": 2598,
      "Ġchest": 2599,
      "Ġboys": 2600,
      "Ġchew": 2601,
      "Ġanswered": 2602,
      "Ġwaves": 2603,
      "Ġweak": 2604,
      "Ġclown": 2605,
      "Ġgathered": 2606,
      "iness": 2607,
      "Ġfake": 2608,
      "Ġspend": 2609,
      "Ġdrop": 2610,
      "Ġthankful": 2611,
      "illi": 2612,
      "Ġtears": 2613,
      "Ġrad": 2614,
      "ĠZ": 2615,
      "mb": 2616,
      "Ġtick": 2617,
      "Ġmiddle": 2618,
      "selves": 2619,
      "Ġcontent": 2620,
      "Sarah": 2621,
      "Ġhang": 2622,
      "Ġjelly": 2623,
      "Ġteam": 2624,
      "apped": 2625,
      "ots": 2626,
      "Ġeld": 2627,
      "Ġgets": 2628,
      "ushed": 2629,
      "Ġexcitement": 2630,
      "Ġcap": 2631,
      "Ġquestions": 2632,
      "Ġlemon": 2633,
      "Ġeggs": 2634,
      "Ġlock": 2635,
      "Who": 2636,
      "Ġtent": 2637,
      "arl": 2638,
      "Ġflag": 2639,
      "Ġskipped": 2640,
      "Ġfridge": 2641,
      "ipp": 2642,
      "Ġchange": 2643,
      "Ġsmelly": 2644,
      "Ġwrote": 2645,
      "Ġrid": 2646,
      "Ġdrawing": 2647,
      "Ġlit": 2648,
      "Ġrelax": 2649,
      "Ġadd": 2650,
      "llie": 2651,
      "Ġfruits": 2652,
      "Ġdiscovered": 2653,
      "oof": 2654,
      "aged": 2655,
      "Sorry": 2656,
      "Ġknight": 2657,
      "Ġbridge": 2658,
      "Ġsight": 2659,
      "ete": 2660,
      "ĠBl": 2661,
      "Ġbathroom": 2662,
      "Their": 2663,
      "Ġboard": 2664,
      "Ġmatch": 2665,
      "Ġmir": 2666,
      "Ġdogs": 2667,
      "Are": 2668,
      "Ġknife": 2669,
      "Ġshows": 2670,
      "Ġclap": 2671,
      "Ġlazy": 2672,
      "Ġfluffy": 2673,
      "Ġqueen": 2674,
      "Ġwolf": 2675,
      "Ġtag": 2676,
      "Ġsil": 2677,
      "Ġcovered": 2678,
      "ĠBrown": 2679,
      "que": 2680,
      "Ġcheck": 2681,
      "Ġsweetie": 2682,
      "Jill": 2683,
      "Ġfamous": 2684,
      "Ġmighty": 2685,
      "ork": 2686,
      "cept": 2687,
      "Ġbake": 2688,
      "Ġord": 2689,
      "Ġpicks": 2690,
      "Ġdrank": 2691,
      "Ġdistance": 2692,
      "Ġmic": 2693,
      "Ġang": 2694,
      "Ġnod": 2695,
      "ella": 2696,
      "Ġdisappeared": 2697,
      "ipper": 2698,
      "Ġlying": 2699,
      "ĠAt": 2700,
      "Ġdeer": 2701,
      "ror": 2702,
      "Ġwander": 2703,
      "Ġboss": 2704,
      "Ġcaterp": 2705,
      "Ġtowel": 2706,
      "Ġcrown": 2707,
      "Ġcaterpill": 2708,
      "Me": 2709,
      "usual": 2710,
      "Ġunusual": 2711,
      "Ġwalks": 2712,
      "Ġfre": 2713,
      "Ġmap": 2714,
      "Ġsoap": 2715,
      "Ġcalling": 2716,
      "Ġeager": 2717,
      "ti": 2718,
      "Ġbone": 2719,
      "Ġind": 2720,
      "Ġfis": 2721,
      "Ġmoving": 2722,
      "Ġshoot": 2723,
      "Ġed": 2724,
      "Ġsell": 2725,
      "Ġdecide": 2726,
      "Ġelderly": 2727,
      "obby": 2728,
      "ĠIf": 2729,
      "Ġlose": 2730,
      "Ġstones": 2731,
      "ination": 2732,
      "Ġborrow": 2733,
      "Ġcover": 2734,
      "Ġdig": 2735,
      "Ġdish": 2736,
      "elp": 2737,
      "Ġcleaned": 2738,
      "body": 2739,
      "Ġsplashed": 2740,
      "ating": 2741,
      "Sally": 2742,
      "Ġweek": 2743,
      "Ġglow": 2744,
      "Ġcrawl": 2745,
      "Ġcage": 2746,
      "arth": 2747,
      "ĠEnd": 2748,
      "Ġcher": 2749,
      "imed": 2750,
      "work": 2751,
      "umbled": 2752,
      "Ġincred": 2753,
      "Ġhunt": 2754,
      "Ġfeathers": 2755,
      "Ġoffered": 2756,
      "Ġbanana": 2757,
      "asing": 2758,
      "Ġcaterpillar": 2759,
      "Ġyours": 2760,
      "Ġkindness": 2761,
      "Ġfather": 2762,
      "alous": 2763,
      "Ġcoins": 2764,
      "Ġeye": 2765,
      "Ġjuicy": 2766,
      "Ġbrilli": 2767,
      "Ġjealous": 2768,
      "Ġbranches": 2769,
      "Ġtape": 2770,
      "Ġcam": 2771,
      "Ġcost": 2772,
      "Ġbottom": 2773,
      "Ġorganized": 2774,
      "Ġmirror": 2775,
      "Ġlamp": 2776,
      "Ġbody": 2777,
      "Ġbrilliant": 2778,
      "Ġtoug": 2779,
      "Ġrare": 2780,
      "fast": 2781,
      "Ġtie": 2782,
      "Ġcraw": 2783,
      "Ġhorn": 2784,
      "Ġthick": 2785,
      "Ġcrawled": 2786,
      "Ġdepend": 2787,
      "Ġhurts": 2788,
      "Ġtunn": 2789,
      "port": 2790,
      "ĠNo": 2791,
      "enny": 2792,
      "Ġmeasure": 2793,
      "Ġcolourful": 2794,
      "Ġbalance": 2795,
      "Help": 2796,
      "Ġbubbles": 2797,
      "Ġbreakfast": 2798,
      "Ġimpressed": 2799,
      "Ġlicked": 2800,
      "Ġext": 2801,
      "Ġhero": 2802,
      "ugar": 2803,
      "Ġtwist": 2804,
      "olog": 2805,
      "Ġincredible": 2806,
      "Ġtiger": 2807,
      "Ġfool": 2808,
      "Ġrough": 2809,
      "Ġjoke": 2810,
      "Ġcross": 2811,
      "Ġonce": 2812,
      "Ġtrucks": 2813,
      "Ġwagon": 2814,
      "Ġfine": 2815,
      "Ġlibr": 2816,
      "Ġboxes": 2817,
      "Ġtough": 2818,
      "Ġadventur": 2819,
      "Ġsmoke": 2820,
      "Ġhappening": 2821,
      "Ġapolog": 2822,
      "appy": 2823,
      "bin": 2824,
      "Ġmanaged": 2825,
      "Ġcabin": 2826,
      "Ġsugar": 2827,
      "ilt": 2828,
      "amond": 2829,
      "?\".": 2830,
      "Ġflash": 2831,
      "Ġrealised": 2832,
      "Ġfavour": 2833,
      "Ġbitter": 2834,
      "Ġtrunk": 2835,
      "Ġadventurous": 2836,
      "How": 2837,
      "Ġwrapped": 2838,
      "hip": 2839,
      "rag": 2840,
      "Ġnoisy": 2841,
      "Ġchase": 2842,
      "Ġjog": 2843,
      "Ġfalls": 2844,
      "Ġflute": 2845,
      "ĠBlue": 2846,
      "Mummy": 2847,
      "Ġaw": 2848,
      "Ġadded": 2849,
      "Ġsugg": 2850,
      "Ġfavourite": 2851,
      "Ġsuggest": 2852,
      "Sp": 2853,
      "Ġdizzy": 2854,
      "ĠSusie": 2855,
      "Ġmelt": 2856,
      "Ġok": 2857,
      "Ġdiamond": 2858,
      "Ġrecord": 2859,
      "Ġharm": 2860,
      "Ġmixed": 2861,
      "Ġcircles": 2862,
      "Ġfoolish": 2863,
      "Al": 2864,
      "Ġsunf": 2865,
      "Ġmarket": 2866,
      "Ġpump": 2867,
      "Ġaccept": 2868,
      "lies": 2869,
      "Ġwand": 2870,
      "Ġlog": 2871,
      "Ġjam": 2872,
      "ured": 2873,
      "Ġguess": 2874,
      "Ġsafely": 2875,
      "land": 2876,
      "yal": 2877,
      "keep": 2878,
      "Ġword": 2879,
      "Ġlouder": 2880,
      "Ġextra": 2881,
      "ory": 2882,
      "Ġneeds": 2883,
      "Ġarg": 2884,
      "Ġlifted": 2885,
      "edient": 2886,
      "ery": 2887,
      "ately": 2888,
      "ĠMark": 2889,
      "Ġcheerful": 2890,
      "Ġturt": 2891,
      "ĠSn": 2892,
      "Ġshark": 2893,
      "Ġjack": 2894,
      "Ġmagn": 2895,
      "Ġdependable": 2896,
      "Ġter": 2897,
      "Ġpil": 2898,
      "Ġears": 2899,
      "Ġpointing": 2900,
      "uggled": 2901,
      "Ġdreamed": 2902,
      "Ġwrap": 2903,
      "Ġberries": 2904,
      "Ġmoms": 2905,
      "Ġagainst": 2906,
      "Ġgrandpa": 2907,
      "Ġgrown": 2908,
      "Ġjewel": 2909,
      "ira": 2910,
      "Ġpee": 2911,
      "Ġgiving": 2912,
      "Ġfigure": 2913,
      "Sue": 2914,
      "Ġham": 2915,
      "Ġgrace": 2916,
      "Ġweal": 2917,
      "Ġfrown": 2918,
      "Well": 2919,
      "Ġswan": 2920,
      "Ġbags": 2921,
      "Ġmovie": 2922,
      "Ġtwig": 2923,
      "Ġdreams": 2924,
      "Ġballoons": 2925,
      "Ġbelonged": 2926,
      "ique": 2927,
      "head": 2928,
      "omed": 2929,
      "Ġlearning": 2930,
      "Ġstronger": 2931,
      "laimed": 2932,
      "Gra": 2933,
      "Ġdolp": 2934,
      "Ġedge": 2935,
      "Ġexclaimed": 2936,
      "Ġyarn": 2937,
      "Ġsword": 2938,
      "Ġslipped": 2939,
      "Ġunique": 2940,
      "Ġsearch": 2941,
      "Ġloyal": 2942,
      "Ġchoose": 2943,
      "emo": 2944,
      "Ġhats": 2945,
      "Ġshake": 2946,
      "rage": 2947,
      "Ġloudly": 2948,
      "Ġenjoying": 2949,
      "fic": 2950,
      "oppy": 2951,
      "Ġhappiness": 2952,
      "Ġspun": 2953,
      "iable": 2954,
      "Ġobedient": 2955,
      "Ġtools": 2956,
      "anut": 2957,
      "anged": 2958,
      "Ġmarble": 2959,
      "ĠMrs": 2960,
      "ready": 2961,
      "Ġsquee": 2962,
      "Ġlaughs": 2963,
      "Ġrich": 2964,
      "Ġwalls": 2965,
      "Ġlean": 2966,
      "ĠElla": 2967,
      "Ġtele": 2968,
      "Ġreliable": 2969,
      "Ġcamera": 2970,
      "und": 2971,
      "Ġfour": 2972,
      "ĠFred": 2973,
      "ext": 2974,
      "iv": 2975,
      "ature": 2976,
      "Ġalready": 2977,
      "Ġmod": 2978,
      "Ġcleaning": 2979,
      "Ġunl": 2980,
      "Ġdiffic": 2981,
      "Ġangel": 2982,
      "Ġterri": 2983,
      "oot": 2984,
      "ĠMy": 2985,
      "Ġclay": 2986,
      "Ġbull": 2987,
      "Ġmeans": 2988,
      "Ġuseful": 2989,
      "Ġcrayon": 2990,
      "Billy": 2991,
      "Ġgoat": 2992,
      "ipe": 2993,
      "Ġpainting": 2994,
      "Ġbuttons": 2995,
      "gy": 2996,
      "ention": 2997,
      "Here": 2998,
      "Ġbarn": 2999,
      "ages": 3000,
      "Ġusing": 3001,
      "Ġcompet": 3002,
      "Ġstraw": 3003,
      "ĠLittle": 3004,
      "umbers": 3005,
      "Ġbloom": 3006,
      "Ġstubb": 3007,
      "Ġindepend": 3008,
      "Ġtunnel": 3009,
      "Ġturtle": 3010,
      "Ġtank": 3011,
      "Ġhelps": 3012,
      "Ġscare": 3013,
      "Ġcircle": 3014,
      "Ġdifficult": 3015,
      "cil": 3016,
      "Ġnorm": 3017,
      "Ġthoughtful": 3018,
      "Joe": 3019,
      "Ġpencil": 3020,
      "keeper": 3021,
      "Ġthu": 3022,
      "Ġfier": 3023,
      "Ġfright": 3024,
      "Ġbushes": 3025,
      "ĠTweety": 3026,
      "Ġpeanut": 3027,
      "Ġpainted": 3028,
      "Ġnosy": 3029,
      "Ġsounded": 3030,
      "zed": 3031,
      "Ġtimes": 3032,
      "Ġguit": 3033,
      "Ġstream": 3034,
      "Ġcounted": 3035,
      "Ġgem": 3036,
      "Ġwhale": 3037,
      "Ġoffice": 3038,
      "Ġdove": 3039,
      "Ġref": 3040,
      "Ġskin": 3041,
      "Ġbald": 3042,
      "Ġparrot": 3043,
      "Ġliz": 3044,
      "Ġcompetit": 3045,
      "Ġstubborn": 3046,
      "Amy": 3047,
      "Ġbirdie": 3048,
      "Ġfierce": 3049,
      "wards": 3050,
      "Ġtoast": 3051,
      "ado": 3052,
      "ĠBu": 3053,
      "Ġknows": 3054,
      "ye": 3055,
      "Ġrug": 3056,
      "Ġisland": 3057,
      "ĠWhenever": 3058,
      "Ġinvited": 3059,
      "Ġwealthy": 3060,
      "Ġnormal": 3061,
      "Ġcop": 3062,
      "Ġsaying": 3063,
      "Ġswe": 3064,
      "Ġexplored": 3065,
      "Ġjoined": 3066,
      "cient": 3067,
      "ject": 3068,
      "Ġfrag": 3069,
      "Ġicy": 3070,
      "orge": 3071,
      "Ġsoar": 3072,
      "Ġweird": 3073,
      "Ġnotice": 3074,
      "Ġcrack": 3075,
      "Ġindependent": 3076,
      "Ġnumbers": 3077,
      "Ġsunflower": 3078,
      "Ġpost": 3079,
      "Ġmole": 3080,
      "Ġbrothers": 3081,
      "Ġdesign": 3082,
      "Ġpirate": 3083,
      "inary": 3084,
      "erry": 3085,
      "Ġgrap": 3086,
      "Ġbossy": 3087,
      "Ġfat": 3088,
      "Ġsmaller": 3089,
      "Ġharder": 3090,
      "ouses": 3091,
      "Ġbuilt": 3092,
      "Ġspoiled": 3093,
      "ines": 3094,
      "Ġstairs": 3095,
      "Ġancient": 3096,
      "Ġseem": 3097,
      "Ġprep": 3098,
      "ĠToday": 3099,
      "Ġguitar": 3100,
      "Ġstumbled": 3101,
      "Ġlights": 3102,
      "Ġmarch": 3103,
      "Ġchicken": 3104,
      "Ġfountain": 3105,
      "Ġsauce": 3106,
      "Ġstri": 3107,
      "Ġrode": 3108,
      "Ġenorm": 3109,
      "Ġpicking": 3110,
      "Ġbeet": 3111,
      "Ġcact": 3112,
      "Ġvalu": 3113,
      "Ġescape": 3114,
      "Ġfragile": 3115,
      "Ġenormous": 3116,
      "Ġhouses": 3117,
      "Ġresc": 3118,
      "Ġpoured": 3119,
      "Ġseeds": 3120,
      "Ġfresh": 3121,
      "Ġsuit": 3122,
      "Ġchar": 3123,
      "ĠPete": 3124,
      "Ġhose": 3125,
      "Ġenvel": 3126,
      "ÅĵLet": 3127,
      "Ġreminded": 3128,
      "ither": 3129,
      "Ġpow": 3130,
      "Ġmem": 3131,
      "upid": 3132,
      "Ġbump": 3133,
      "Ġcudd": 3134,
      "irp": 3135,
      "Ġfork": 3136,
      "Ġtrump": 3137,
      "Ġproudly": 3138,
      "Ġkinds": 3139,
      "Ġbounce": 3140,
      "Ġpractice": 3141,
      "Ġways": 3142,
      "Ġpenny": 3143,
      "Ġcity": 3144,
      "Ġpepper": 3145,
      "Ġsalad": 3146,
      "ĠAlice": 3147,
      "Ġcostum": 3148,
      "Spot": 3149,
      "Ġfrightened": 3150,
      "aid": 3151,
      "ache": 3152,
      "Ġsearching": 3153,
      "Ġchose": 3154,
      "Ġfingers": 3155,
      "Ġshells": 3156,
      "Ġadmired": 3157,
      "Ġsolve": 3158,
      "Ġcactus": 3159,
      "Ġtummy": 3160,
      "Ġwake": 3161,
      "Ġhalf": 3162,
      "Ġthirst": 3163,
      "Ġroof": 3164,
      "Ġshowing": 3165,
      "ola": 3166,
      "Ġdelighted": 3167,
      "na": 3168,
      "Ġcone": 3169,
      "Ġdull": 3170,
      "anger": 3171,
      "dom": 3172,
      "Ġnurse": 3173,
      "alk": 3174,
      "arsh": 3175,
      "Ġboats": 3176,
      "Ġbarber": 3177,
      "eorge": 3178,
      "Ġbeak": 3179,
      "Ġstage": 3180,
      "Ġstupid": 3181,
      "Ġexcitedly": 3182,
      "Ġabove": 3183,
      "berry": 3184,
      "Ġstudy": 3185,
      "Ġbatter": 3186,
      "Ġspace": 3187,
      "Ġsuggested": 3188,
      "Ġlizard": 3189,
      "Ġshone": 3190,
      "Ġcompass": 3191,
      "Ġregular": 3192,
      "Ġflashlight": 3193,
      "vice": 3194,
      "Ġhoop": 3195,
      "Ġcere": 3196,
      "Ġlocked": 3197,
      "Ġspilled": 3198,
      "Ġshape": 3199,
      "Ġattic": 3200,
      "Ġterrible": 3201,
      "Ġtooth": 3202,
      "ĠNemo": 3203,
      "Ġvaluable": 3204,
      "Ġtrumpet": 3205,
      "time": 3206,
      "arry": 3207,
      "Ġarrow": 3208,
      "ress": 3209,
      "Ġpant": 3210,
      "Ġearth": 3211,
      "Ġyet": 3212,
      "ĠBella": 3213,
      "illie": 3214,
      "Ġcheap": 3215,
      "ĠBobo": 3216,
      "Ġdesk": 3217,
      "Ġkicked": 3218,
      "Ġserious": 3219,
      "Ġsuccessful": 3220,
      "Ġthirsty": 3221,
      "Ġlow": 3222,
      "ĠDave": 3223,
      "Em": 3224,
      "het": 3225,
      "inal": 3226,
      "Ġclum": 3227,
      "Ġlab": 3228,
      "Ġscrat": 3229,
      "Ġorig": 3230,
      "com": 3231,
      "Ġow": 3232,
      "Ġrat": 3233,
      "Ġstove": 3234,
      "corn": 3235,
      "Ġavo": 3236,
      "Ġenvelope": 3237,
      "Ġwitch": 3238,
      "ĠMummy": 3239,
      "Ġthemselves": 3240,
      "Ġimpress": 3241,
      "Ġer": 3242,
      "Ġson": 3243,
      "ĠWhile": 3244,
      "aghet": 3245,
      "Ġcomb": 3246,
      "Ġbrightly": 3247,
      "Ġstops": 3248,
      "Ġthunder": 3249,
      "aghetti": 3250,
      "Ġhay": 3251,
      "Ġbees": 3252,
      "Ġstamp": 3253,
      "iew": 3254,
      "Ġlaw": 3255,
      "Ġraced": 3256,
      "Ġdreaming": 3257,
      "Ġscreen": 3258,
      "ĠMar": 3259,
      "Ġcareless": 3260,
      "Ġsniff": 3261,
      "Ġoriginal": 3262,
      "Ġwashed": 3263,
      "Ġspaghetti": 3264,
      "ĠYour": 3265,
      "Ġchanged": 3266,
      "Ġview": 3267,
      "Ġwiped": 3268,
      "ĠU": 3269,
      "uth": 3270,
      "Ġending": 3271,
      "Ġstickers": 3272,
      "Ġhelm": 3273,
      "Ġrushed": 3274,
      "ĠDucky": 3275,
      "Ġdelicate": 3276,
      "Ġwarned": 3277,
      "Ġbeetle": 3278,
      "Ġflex": 3279,
      "Ġmis": 3280,
      "gest": 3281,
      "ience": 3282,
      "isk": 3283,
      "Ġthose": 3284,
      "Ġyog": 3285,
      "Ġcarp": 3286,
      "berries": 3287,
      "Ġleaving": 3288,
      "Ġsteal": 3289,
      "Ġpersist": 3290,
      "Ġcompassion": 3291,
      "Ġclumsy": 3292,
      "Ġtor": 3293,
      "Ġbiggest": 3294,
      "!\".": 3295,
      "Ġtravel": 3296,
      "Ġdead": 3297,
      "oomy": 3298,
      "Ġpopcorn": 3299,
      "Ġdough": 3300,
      "Ġbean": 3301,
      "Ġfinding": 3302,
      "Ġenc": 3303,
      "Ġpumpkin": 3304,
      "Ġing": 3305,
      "ision": 3306,
      "Ġsne": 3307,
      "Ġtomato": 3308,
      "Ġdiscover": 3309,
      "Ġwire": 3310,
      "anny": 3311,
      "Ġlibrary": 3312,
      "While": 3313,
      "uring": 3314,
      "robe": 3315,
      "Ġgrand": 3316,
      "Ġsnee": 3317,
      "Ġdeliver": 3318,
      "Ġcomplet": 3319,
      "redient": 3320,
      "Ġgraceful": 3321,
      "Ġingredient": 3322,
      "Ġmeal": 3323,
      "Ġsorts": 3324,
      "Ġunk": 3325,
      "Ġtelling": 3326,
      "Ġcereal": 3327,
      "Ġknock": 3328,
      "Ġuncle": 3329,
      "Ġimagined": 3330,
      "Ġearly": 3331,
      "Ġpeeked": 3332,
      "Ġtask": 3333,
      "âĤ¬âĢ": 3334,
      "Ġtrap": 3335,
      "Ġhairy": 3336,
      "Ġmissing": 3337,
      "Ġcounting": 3338,
      "Ġingredients": 3339,
      "Ġadvice": 3340,
      "Ġpup": 3341,
      "uper": 3342,
      "Ġjacket": 3343,
      "Ġmel": 3344,
      "Ġshiver": 3345,
      "Ġzip": 3346,
      "Ġhumble": 3347,
      "Ġforth": 3348,
      "Ġstranger": 3349,
      "Ġsquare": 3350,
      "Ġdoesn": 3351,
      "Ġpale": 3352,
      "Ġguard": 3353,
      "Ġdestro": 3354,
      "Ġsudden": 3355,
      "ĠBobby": 3356,
      "Ġflexible": 3357,
      "Ġhipp": 3358,
      "ilty": 3359,
      "Ġplayful": 3360,
      "Ġdriving": 3361,
      "Ġguilty": 3362,
      "Ġpige": 3363,
      "Ġaunt": 3364,
      "Ġquestion": 3365,
      "Ġthinking": 3366,
      "Ġwhispered": 3367,
      "Ġimpressive": 3368,
      "Ġcards": 3369,
      "Ġnicely": 3370,
      "Ġjolly": 3371,
      "Ġcreate": 3372,
      "Ġopens": 3373,
      "Ġcollar": 3374,
      "Ġcarrying": 3375,
      "Ġslides": 3376,
      "Ġspeed": 3377,
      "nown": 3378,
      "Ġcur": 3379,
      "Ġallowed": 3380,
      "cod": 3381,
      "Ġtwirled": 3382,
      "Ġhandle": 3383,
      "Ġprint": 3384,
      "Ġsparkled": 3385,
      "Ġhunter": 3386,
      "illa": 3387,
      "Ġbrace": 3388,
      "Ġsticker": 3389,
      "Ġpopular": 3390,
      "ud": 3391,
      "Ġcush": 3392,
      "Ġumb": 3393,
      "ement": 3394,
      "Ġrub": 3395,
      "host": 3396,
      "Ġumbre": 3397,
      "fa": 3398,
      "Ġtap": 3399,
      "Ġtied": 3400,
      "Ġsink": 3401,
      "Ġanx": 3402,
      "Ġenv": 3403,
      "Ġrubb": 3404,
      "ations": 3405,
      "Ġbase": 3406,
      "Ġdisg": 3407,
      "Ġrubbed": 3408,
      "comfort": 3409,
      "bled": 3410,
      "Ġfriendship": 3411,
      "Ġcarpet": 3412,
      "tter": 3413,
      "Ġuncomfort": 3414,
      "Ġcooking": 3415,
      "Ġcharming": 3416,
      "Ġpersistent": 3417,
      "Ġdisgust": 3418,
      "Ġuncomfortable": 3419,
      "arian": 3420,
      "Ġgum": 3421,
      "Ġgira": 3422,
      "Ġshocked": 3423,
      "ĠRose": 3424,
      "Ġholds": 3425,
      "awn": 3426,
      "Ġwing": 3427,
      "ream": 3428,
      "Ġghost": 3429,
      "Ġrefused": 3430,
      "ellig": 3431,
      "ĠRed": 3432,
      "Ġperm": 3433,
      "Ġmetal": 3434,
      "Ġanxious": 3435,
      "Ġintellig": 3436,
      "Ġbutterflies": 3437,
      "Ġdolphin": 3438,
      "Ġdust": 3439,
      "Ġscatter": 3440,
      "Ġsett": 3441,
      "Ġcrocod": 3442,
      "Ġgasped": 3443,
      "Ġunknown": 3444,
      "Ġpatter": 3445,
      "Ġscoot": 3446,
      "Ġeng": 3447,
      "Ġcomput": 3448,
      "Ġpatch": 3449,
      "Ġpants": 3450,
      "loo": 3451,
      "aroo": 3452,
      "Ġneat": 3453,
      "ugged": 3454,
      "angaroo": 3455,
      "Ġspinning": 3456,
      "Ġnature": 3457,
      "Ġshel": 3458,
      "Ġkangaroo": 3459,
      "Ġchasing": 3460,
      "Ġcelebrate": 3461,
      "Ġpattern": 3462,
      "Ġled": 3463,
      "Ġmoder": 3464,
      "Ġpasta": 3465,
      "Ġwheels": 3466,
      "Ġnames": 3467,
      "Ġtruth": 3468,
      "Ġordinary": 3469,
      "Ġhammer": 3470,
      "ÅĵLetÃ¢": 3471,
      "Ġhippo": 3472,
      "Ġmask": 3473,
      "Ġsurf": 3474,
      "Ġtorn": 3475,
      "Ġencou": 3476,
      "Ow": 3477,
      "Ġstat": 3478,
      "Ġresist": 3479,
      "Ġcoco": 3480,
      "Ġimpat": 3481,
      "ĠGrandpa": 3482,
      "Ġcocoa": 3483,
      "See": 3484,
      "Ġgoose": 3485,
      "ĠAlex": 3486,
      "ÅĵIt": 3487,
      "Ġphot": 3488,
      "ĠEllie": 3489,
      "Ġacorn": 3490,
      "uddy": 3491,
      "Ġperform": 3492,
      "eer": 3493,
      "Ġbent": 3494,
      "Ġpand": 3495,
      "Ġotter": 3496,
      "ĠKim": 3497,
      "Ġgrowing": 3498,
      "Ġimpatient": 3499,
      "Ġmath": 3500,
      "iches": 3501,
      "ĠWh": 3502,
      "Ġskip": 3503,
      "Ġsnuggled": 3504,
      "Ġcrazy": 3505,
      "Ġsleeping": 3506,
      "ffee": 3507,
      "Ġprize": 3508,
      "Ġharmless": 3509,
      "Ġmodern": 3510,
      "ray": 3511,
      "Ġoat": 3512,
      "orant": 3513,
      "Ġshine": 3514,
      "Ġrece": 3515,
      "Ġscale": 3516,
      "ÅĵWhat": 3517,
      "Ġfireman": 3518,
      "Ġcrane": 3519,
      "Ġrestaur": 3520,
      "Ġmagnet": 3521,
      "Ġrestaurant": 3522,
      "Ġbeauty": 3523,
      "Ġtrash": 3524,
      "Ġwindows": 3525,
      "Ġsplit": 3526,
      "Ġattract": 3527,
      "Ġpotato": 3528,
      "Ġdestroy": 3529,
      "ĠHere": 3530,
      "Ġreind": 3531,
      "ĠFr": 3532,
      "Ġhanded": 3533,
      "Ġunpack": 3534,
      "Ġshoe": 3535,
      "Ġplaced": 3536,
      "Ġintelligent": 3537,
      "ĠMike": 3538,
      "ĠLook": 3539,
      "Ġspoke": 3540,
      "Ġcricket": 3541,
      "Go": 3542,
      "llip": 3543,
      "Ġcompassionate": 3544,
      "Ġdisgusting": 3545,
      "llipop": 3546,
      "cut": 3547,
      "Ġsofa": 3548,
      "Ġumbrella": 3549,
      "Ġtem": 3550,
      "Ġahead": 3551,
      "Ġload": 3552,
      "Ġlollipop": 3553,
      "Ġstarts": 3554,
      "noon": 3555,
      "Ġsuper": 3556,
      "Ġafternoon": 3557,
      "Ġdrawer": 3558,
      "Ġwheat": 3559,
      "Ġdistant": 3560,
      "Ġsandwiches": 3561,
      "Ġcandle": 3562,
      "Ġwaff": 3563,
      "ĠSm": 3564,
      "Ġyawn": 3565,
      "Ġignorant": 3566,
      "ince": 3567,
      "Ġchance": 3568,
      "ĠFin": 3569,
      "ĠCl": 3570,
      "ips": 3571,
      "aches": 3572,
      "Ġtriang": 3573,
      "ĠSnow": 3574,
      "Ġbracelet": 3575,
      "Ġreindeer": 3576,
      "ikes": 3577,
      "oe": 3578,
      "Ġdug": 3579,
      "Ġhedge": 3580,
      "Ġrules": 3581,
      "Ġcountry": 3582,
      "Ġspring": 3583,
      "ophone": 3584,
      "Ġpigeon": 3585,
      "aby": 3586,
      "Ġhook": 3587,
      "Ġshield": 3588,
      "Ġreco": 3589,
      "Ġflour": 3590,
      "Ġtrop": 3591,
      "Ġclock": 3592,
      "Ġbin": 3593,
      "Ġpurse": 3594,
      "Ġshut": 3595,
      "Ġcoffee": 3596,
      "ĠcouldnÃ¢": 3597,
      "Ġsupport": 3598,
      "Ġrestless": 3599,
      "Ġhung": 3600,
      "Ġcupboard": 3601,
      "Ġtire": 3602,
      "Ġharsh": 3603,
      "Ġcord": 3604,
      "Ġol": 3605,
      "Ġjug": 3606,
      "Ġorder": 3607,
      "Ġgifted": 3608,
      "Ġmailbox": 3609,
      "ĠTweetie": 3610,
      "Ġtrophy": 3611,
      "Ġsym": 3612,
      "erable": 3613,
      "Ġmay": 3614,
      "ict": 3615,
      "used": 3616,
      "Ġjumps": 3617,
      "ophie": 3618,
      "Ġnote": 3619,
      "Ġsadly": 3620,
      "Ġcats": 3621,
      "lcano": 3622,
      "Ġshrimp": 3623,
      "Ġsilver": 3624,
      "Ġmiserable": 3625,
      "af": 3626,
      "Ġsend": 3627,
      "Ġshadow": 3628,
      "ices": 3629,
      "Ġmush": 3630,
      "Ġpretending": 3631,
      "cycle": 3632,
      "Ġfilm": 3633,
      "Ġcrocodile": 3634,
      "gu": 3635,
      "Ġax": 3636,
      "Ġitself": 3637,
      "Ġleop": 3638,
      "aser": 3639,
      "ĠPolly": 3640,
      "gging": 3641,
      "Ġengine": 3642,
      "Yay": 3643,
      "cu": 3644,
      "ibb": 3645,
      "shed": 3646,
      "Ġcamp": 3647,
      "bol": 3648,
      "Ġfurther": 3649,
      "Ġcourage": 3650,
      "Ġpracticed": 3651,
      "Ġhurry": 3652,
      "Ġmelon": 3653,
      "Ġmuff": 3654,
      "Ġanywhere": 3655,
      "Ġimpro": 3656,
      "Ġobject": 3657,
      "Ġcomputer": 3658,
      "Ġsymbol": 3659,
      "gn": 3660,
      "Ġbri": 3661,
      "Ġfu": 3662,
      "Ġmill": 3663,
      "Ġvine": 3664,
      "uct": 3665,
      "Ġtrick": 3666,
      "Ġcreatures": 3667,
      "Ġgoal": 3668,
      "Ġcompl": 3669,
      "ÅĵYes": 3670,
      "Ġtowers": 3671,
      "Ġjeep": 3672,
      "Ġenth": 3673,
      "aled": 3674,
      "Ġrose": 3675,
      "Ġpainter": 3676,
      "Ġrepe": 3677,
      "Ġrice": 3678,
      "Ġstack": 3679,
      "Ġcooler": 3680,
      "Ġreading": 3681,
      "Alice": 3682,
      "Ġenvious": 3683,
      "Ġpony": 3684,
      "ĠSandy": 3685,
      "Ġstation": 3686,
      "Ġparade": 3687,
      "Ġwishes": 3688,
      "az": 3689,
      "Ġneedle": 3690,
      "Ġcryst": 3691,
      "Ġforgave": 3692,
      "Ġcartoon": 3693,
      "iron": 3694,
      "stri": 3695,
      "Ġkay": 3696,
      "ĠAre": 3697,
      "ÅĵThat": 3698,
      "ĠToby": 3699,
      "Ġtreasures": 3700,
      "Ġstretched": 3701,
      "Ġaxe": 3702,
      "Ġenthus": 3703,
      "Ġreward": 3704,
      "Ġnowhere": 3705,
      "Ġhelmet": 3706,
      "Ġattractive": 3707,
      "ric": 3708,
      "Ġjet": 3709,
      "Ġhelpless": 3710,
      "Ġlaser": 3711,
      "Ġolder": 3712,
      "ĠGive": 3713,
      "Ġbrighter": 3714,
      "Ġsecond": 3715,
      "Ġtroubled": 3716,
      "Ġletters": 3717,
      "Ġsweater": 3718,
      "Ġoy": 3719,
      "Ġscold": 3720,
      "ĠEventually": 3721,
      "Ġmessage": 3722,
      "Ġpastry": 3723,
      "Ġfootball": 3724,
      "cream": 3725,
      "Ġten": 3726,
      "Ġbadly": 3727,
      "Ġtrack": 3728,
      "Ġpackage": 3729,
      "Ġvalue": 3730,
      "ĠBrownie": 3731,
      "Ġcompetitive": 3732,
      "Ġcushion": 3733,
      "Ġscooter": 3734,
      "Ġpanda": 3735,
      "Ġpilot": 3736,
      "Ġrecogn": 3737,
      "Ġmushroom": 3738,
      "Ġtheater": 3739,
      "Ġpor": 3740,
      "ĠTr": 3741,
      "Ġsock": 3742,
      "Ġalert": 3743,
      "ĠWhere": 3744,
      "Ġpressed": 3745,
      "Ġgloomy": 3746,
      "Ġtricks": 3747,
      "Ġvisited": 3748,
      "Ġgiggle": 3749,
      "ebra": 3750,
      "Ġsalt": 3751,
      "Ġfearful": 3752,
      "Ġmicr": 3753,
      "Ġhall": 3754,
      "htub": 3755,
      "Ġspell": 3756,
      "Ġanyway": 3757,
      "ĠPe": 3758,
      "Ġbandage": 3759,
      "Ġhuman": 3760,
      "orable": 3761,
      "Ġbeep": 3762,
      "Ġswitch": 3763,
      "Ġtear": 3764,
      "ĠPaul": 3765,
      "Ġshouts": 3766,
      "Ġdeaf": 3767,
      "Ġadmire": 3768,
      "Ġbathtub": 3769,
      "Ġeraser": 3770,
      "Re": 3771,
      "ef": 3772,
      "kelet": 3773,
      "Ġvolcano": 3774,
      "Ġzebra": 3775,
      "Ġpengu": 3776,
      "Ġbarrel": 3777,
      "Ġcows": 3778,
      "Ġmicrophone": 3779,
      "orilla": 3780,
      "Ġener": 3781,
      "Ġthread": 3782,
      "Ġswinging": 3783,
      "Ġroared": 3784,
      "Ġraven": 3785,
      "Ġbounced": 3786,
      "hino": 3787,
      "Ġsoldier": 3788,
      "Ġavoc": 3789,
      "Ġstatue": 3790,
      "Ġleopard": 3791,
      "stairs": 3792,
      "Ġstarting": 3793,
      "Ġtray": 3794,
      "Ġsize": 3795,
      "Ġhive": 3796,
      "opus": 3797,
      "Ġholes": 3798,
      "Ġstrugg": 3799,
      "ctopus": 3800,
      "ĠPat": 3801,
      "Ġobser": 3802,
      "Ġnuts": 3803,
      "Ġmodest": 3804,
      "iskers": 3805,
      "ĠSmith": 3806,
      "ci": 3807,
      "year": 3808,
      "Ġsent": 3809,
      "ĠLola": 3810,
      "Ġpeach": 3811,
      "Ġadorable": 3812,
      "Benny": 3813,
      "Ġsquash": 3814,
      "ebook": 3815,
      "Ġsteps": 3816,
      "Ġriding": 3817,
      "keleton": 3818,
      "Mary": 3819,
      "Ġoctopus": 3820,
      "ckey": 3821,
      "Ġnotebook": 3822,
      "Ġhockey": 3823,
      "Ġrespectful": 3824,
      "Ġcurt": 3825,
      "Ġlip": 3826,
      "Ġshaking": 3827,
      "Ġbackpack": 3828,
      "Ġchain": 3829,
      "Ġcurtain": 3830,
      "Ġants": 3831,
      "Ġfive": 3832,
      "Ġmop": 3833,
      "Ġgorilla": 3834,
      "Ġquar": 3835,
      "Ġbehave": 3836,
      "Ġhaircut": 3837,
      "Ġwallet": 3838,
      "Ġshopkeeper": 3839,
      "ceros": 3840,
      "Ġfilthy": 3841,
      "strich": 3842,
      "hinoceros": 3843,
      "Ġeither": 3844,
      "Ġur": 3845,
      "ceed": 3846,
      "Ġboots": 3847,
      "Ġpulls": 3848,
      "Ġtripped": 3849,
      "Ġpapers": 3850,
      "Ġstirred": 3851,
      "Give": 3852,
      "If": 3853,
      "Ġpad": 3854,
      "ĠMandy": 3855,
      "Ġnobody": 3856,
      "Ġsunset": 3857,
      "Ġexplain": 3858,
      "Ġchecked": 3859,
      "Ġsandbox": 3860,
      "ccol": 3861,
      "arnt": 3862,
      "Ġlearnt": 3863,
      "Ġsort": 3864,
      "Ġavail": 3865,
      "Ġdecorate": 3866,
      "ccoli": 3867,
      "erc": 3868,
      "Ġmug": 3869,
      "Ġpun": 3870,
      "Ġgolf": 3871,
      "Ġmeas": 3872,
      "ĠGeorge": 3873,
      "ĠRo": 3874,
      "Ġpushing": 3875,
      "Ġmotorcycle": 3876,
      "Ġrescue": 3877,
      "Ġcrystal": 3878,
      "ipping": 3879,
      "Ġrhinoceros": 3880,
      "Ġsomewhere": 3881,
      "Ġvest": 3882,
      "Ġpebble": 3883,
      "Ġart": 3884,
      "Ġlightning": 3885,
      "Ġsailor": 3886,
      "Ġcooked": 3887,
      "Ġpowder": 3888,
      "iest": 3889,
      "Ġstared": 3890,
      "Ġshort": 3891,
      "ief": 3892,
      "Ġclapping": 3893,
      "Ġrolling": 3894,
      "Ġgiraffe": 3895,
      "Ġporch": 3896,
      "Ġskeleton": 3897,
      "Ġdess": 3898,
      "ĠBunny": 3899,
      "Ġvi": 3900,
      "ĠEverything": 3901,
      "Ġjokes": 3902,
      "Ġexper": 3903,
      "ses": 3904,
      "Ġbet": 3905,
      "render": 3906,
      "Ġincl": 3907,
      "Ġunlock": 3908,
      "Ġavailable": 3909,
      "reci": 3910,
      "Ġcomet": 3911,
      "ĠBuddy": 3912,
      "sely": 3913,
      "Ġtrains": 3914,
      "Ġdishes": 3915,
      "Ġpoint": 3916,
      "Ġorganize": 3917,
      "Ġsucceed": 3918,
      "Ġkayak": 3919,
      "par": 3920,
      "Ġhappier": 3921,
      "seum": 3922,
      "Ġexerc": 3923,
      "Ġleash": 3924,
      "ucked": 3925,
      "Ġquite": 3926,
      "enry": 3927,
      "ooped": 3928,
      "Ġstom": 3929,
      "Ġhadn": 3930,
      "Ġsepar": 3931,
      "Ġlaund": 3932,
      "astic": 3933,
      "Ġlistening": 3934,
      "osie": 3935,
      "Ġbarking": 3936,
      "Ġpaws": 3937,
      "Ġfrowned": 3938,
      "hood": 3939,
      "ube": 3940,
      "Ġtur": 3941,
      "Ġtoil": 3942,
      "elery": 3943,
      "Ġmuseum": 3944,
      "Ġcolours": 3945,
      "Ġclimbing": 3946,
      "Ġappreci": 3947,
      "Ġcomplete": 3948,
      "Ġtriangle": 3949,
      "Ġcase": 3950,
      "Ġweather": 3951,
      "Ġseal": 3952,
      "ummer": 3953,
      "Ġpeek": 3954,
      "Ġunh": 3955,
      "Ġzipper": 3956,
      "Ġdessert": 3957,
      "Ġlaundry": 3958,
      "night": 3959,
      "ĠSh": 3960,
      "Ġcane": 3961,
      "Ġbroccoli": 3962,
      "ĠJoey": 3963,
      "Little": 3964,
      "inking": 3965,
      "Ġreef": 3966,
      "ĠMaria": 3967,
      "ĠWhiskers": 3968,
      "ubby": 3969,
      "Ġiron": 3970,
      "Ġputting": 3971,
      "Ġclosely": 3972,
      "Ġpushes": 3973,
      "Ġmonkeys": 3974,
      "Ġsurrender": 3975,
      "Jenny": 3976,
      "cast": 3977,
      "Ġpipe": 3978,
      "Ġyach": 3979,
      "Ġspir": 3980,
      "Ġbreat": 3981,
      "Ġlions": 3982,
      "Ġblowing": 3983,
      "come": 3984,
      "io": 3985,
      "Ġsle": 3986,
      "Ġped": 3987,
      "urb": 3988,
      "Ġmarched": 3989,
      "Ġdisturb": 3990,
      "Ġspeak": 3991,
      "Ġturkey": 3992,
      "Ġtoilet": 3993,
      "Bye": 3994,
      "aked": 3995,
      "ges": 3996,
      "ron": 3997,
      "Ġbicy": 3998,
      "Ġfinds": 3999,
      "Ġskill": 4000,
      "Ġdrawings": 4001,
      "Ġbarks": 4002,
      "Ġlively": 4003,
      "Ġstuffed": 4004,
      "heart": 4005,
      "Ġnail": 4006,
      "Ġrever": 4007,
      "ĠAndy": 4008,
      "Ġpair": 4009,
      "Ġsandcast": 4010,
      "Ġnapkin": 4011,
      "Ġended": 4012,
      "Ġdancer": 4013,
      "Ġpolish": 4014,
      "Ġcostume": 4015,
      "ĠSnowy": 4016,
      "Ġyacht": 4017,
      "Ġostrich": 4018,
      "anic": 4019,
      "Ġink": 4020,
      "Ġfort": 4021,
      "Ġsoftly": 4022,
      "Ġmild": 4023,
      "iling": 4024,
      "Ġribb": 4025,
      "chanic": 4026,
      "ected": 4027,
      "Ġraining": 4028,
      "olin": 4029,
      "gs": 4030,
      "vator": 4031,
      "Ġtube": 4032,
      "Ġlid": 4033,
      "Ġoil": 4034,
      "Ġclub": 4035,
      "Ġchubby": 4036,
      "Ġuniver": 4037,
      "Ġappl": 4038,
      "Ġthanks": 4039,
      "Ġinf": 4040,
      "ecause": 4041,
      "Ġmechanic": 4042,
      "ĠWill": 4043,
      "play": 4044,
      "Ġcrow": 4045,
      "Ġpiano": 4046,
      "ĠGrace": 4047,
      "Ġelevator": 4048,
      "Ġbasketball": 4049,
      "aulif": 4050,
      "Ġbubble": 4051,
      "Ġhoping": 4052,
      "Ġbelt": 4053,
      "Ġmixer": 4054,
      "Ġstrip": 4055,
      "Ġunhappy": 4056,
      "Ġcaulif": 4057,
      "ison": 4058,
      "Ġglove": 4059,
      "Ġairport": 4060,
      "Ġspirit": 4061,
      "Ġwife": 4062,
      "Ġbikes": 4063,
      "Ġhut": 4064,
      "ites": 4065,
      "Ġinsist": 4066,
      "Ġpress": 4067,
      "Ġjudge": 4068,
      "Ġcups": 4069,
      "Ġwelcomed": 4070,
      "Ġframe": 4071,
      "Ġmagaz": 4072,
      "Ġgrabs": 4073,
      "Everyone": 4074,
      "Ġdrops": 4075,
      "Ġleaned": 4076,
      "edy": 4077,
      "Ġmama": 4078,
      "Ġthief": 4079,
      "stic": 4080,
      "Ġgrapes": 4081,
      "âĤ¬âĢľ": 4082,
      "Ġquarrel": 4083,
      "mand": 4084,
      "Ġevening": 4085,
      "Ġprov": 4086,
      "Ġrepair": 4087,
      "Ġbaseball": 4088,
      "Ġtemp": 4089,
      "ws": 4090,
      "Ġcelery": 4091,
      "ĠMillie": 4092,
      "Ġfactor": 4093,
      "iastic": 4094,
      "Ġbuzz": 4095,
      "Ġimagine": 4096,
      "Ġradish": 4097,
      "arlie": 4098,
      "Ġapologized": 4099,
      "Ġsneak": 4100,
      "Ġenthusiastic": 4101,
      "Ġoyster": 4102,
      "Ġtub": 4103,
      "Ġluck": 4104,
      "Ġmen": 4105,
      "Ġrag": 4106,
      "Ġdisplay": 4107,
      "Ġgiven": 4108,
      "Ġcounter": 4109,
      "Ġbreaks": 4110,
      "Ġcherries": 4111,
      "Ġshelter": 4112,
      "ĠBear": 4113,
      "Ġmule": 4114,
      "ĠdidnÃ¢": 4115,
      "Ġmarry": 4116,
      "Ġveil": 4117,
      "Ġzoomed": 4118,
      "Ġfactory": 4119,
      "aff": 4120,
      "azz": 4121,
      "zzy": 4122,
      "ĠBill": 4123,
      "Ġfisher": 4124,
      "Ġbicycle": 4125,
      "Ġlend": 4126,
      "Ġshade": 4127,
      "Ġfeelings": 4128,
      "Ġenergy": 4129,
      "Ġpoem": 4130,
      "Ġbul": 4131,
      "Ġhopes": 4132,
      "Ġfrogs": 4133,
      "Ġcauliflower": 4134,
      "imney": 4135,
      "Ġrod": 4136,
      "Ġprun": 4137,
      "Ġchimney": 4138,
      "Ġbears": 4139,
      "Grandma": 4140,
      "Daisy": 4141,
      "Ġfurn": 4142,
      "iture": 4143,
      "Ġweep": 4144,
      "Ġpole": 4145,
      "Ġstretch": 4146,
      "Ġfurniture": 4147,
      "Ġgym": 4148,
      "Ġplayer": 4149,
      "apa": 4150,
      "Ġraft": 4151,
      "Ġmaze": 4152,
      "Ġpaid": 4153,
      "Ġbulb": 4154,
      "ense": 4155,
      "any": 4156,
      "Ġstaff": 4157,
      "chair": 4158,
      "Ġshakes": 4159,
      "icer": 4160,
      "ippery": 4161,
      "ccer": 4162,
      "Ġdive": 4163,
      "Ġsoccer": 4164,
      "Ġlives": 4165,
      "Ġkitty": 4166,
      "rod": 4167,
      "Ġintrod": 4168,
      "Ġslippery": 4169,
      "Ġcheek": 4170,
      "Ġperfectly": 4171,
      "Ġattention": 4172,
      "Ġneighbour": 4173,
      "Ġsheet": 4174,
      "Ġnews": 4175,
      "Ġtrail": 4176,
      "Ġsmells": 4177,
      "Ġfalling": 4178,
      "Ġphoto": 4179,
      "Ġviolin": 4180,
      "eath": 4181,
      "gen": 4182,
      "Ġbur": 4183,
      "Ġpine": 4184,
      "Ġknot": 4185,
      "ĠJerry": 4186,
      "Ġchirp": 4187,
      "Ġquit": 4188,
      "ĠRu": 4189,
      "ĠRosie": 4190,
      "Ġmarried": 4191,
      "Ġbananas": 4192,
      "Ġsummer": 4193,
      "Ġlang": 4194,
      "Ġpage": 4195,
      "Ġlie": 4196,
      "Ġfirework": 4197,
      "Ġsweetheart": 4198,
      "Ġcrib": 4199,
      "Ġlangu": 4200,
      "Ġlime": 4201,
      "Ġonion": 4202,
      "Ġreve": 4203,
      "Ġarmchair": 4204,
      "Ġsprink": 4205,
      "Ġbelongs": 4206,
      "Ġcardboard": 4207,
      "Ġgolden": 4208,
      "Ġcabinet": 4209,
      "ait": 4210,
      "low": 4211,
      "men": 4212,
      "Ġsir": 4213,
      "aring": 4214,
      "Ġgro": 4215,
      "ories": 4216,
      "Ġshouldn": 4217,
      "Ġwool": 4218,
      "ĠSophie": 4219,
      "ĠWould": 4220,
      "ĠLee": 4221,
      "Ġtrave": 4222,
      "Ġsticky": 4223,
      "Ġpuddles": 4224,
      "Ġfields": 4225,
      "Ġtuna": 4226,
      "Ġchickens": 4227,
      "bul": 4228,
      "ĠSee": 4229,
      "stead": 4230,
      "Ġscolded": 4231,
      "inarian": 4232,
      "Ġswung": 4233,
      "Ġvide": 4234,
      "ÅĵYou": 4235,
      "eterinarian": 4236,
      "..": 4237,
      "Ġtherm": 4238,
      "Ġsoil": 4239,
      "reeze": 4240,
      "Ġstraight": 4241,
      "Ġburned": 4242,
      "Ġavocado": 4243,
      "eve": 4244,
      "Ġherb": 4245,
      "Ġrot": 4246,
      "hero": 4247,
      "ometer": 4248,
      "Ġflies": 4249,
      "Ġveterinarian": 4250,
      "Ġprevent": 4251,
      "izes": 4252,
      "Ġdisag": 4253,
      "Ġpirates": 4254,
      "Ġfisherman": 4255,
      "ween": 4256,
      "Ġnovel": 4257,
      "aud": 4258,
      "Ġoffer": 4259,
      "Ġshovel": 4260,
      "Ġcreated": 4261,
      "Ġpetals": 4262,
      "Ġjourn": 4263,
      "Ġimagination": 4264,
      "Daddy": 4265,
      "Ġsuperhero": 4266,
      "Ġbetween": 4267,
      "Ġmeeting": 4268,
      "Ġclassroom": 4269,
      "Ġglowing": 4270,
      "hic": 4271,
      "Ġplastic": 4272,
      "Ġtwink": 4273,
      "Ġopera": 4274,
      "Ġvehic": 4275,
      "Ġkingdom": 4276,
      "Ġmistakes": 4277,
      "Ġmemories": 4278,
      "Ġthermometer": 4279,
      "Ch": 4280,
      "Ġble": 4281,
      "Ġcell": 4282,
      "Ġpal": 4283,
      "unately": 4284,
      "Ġseeing": 4285,
      "Ġshoulder": 4286,
      "ĠKate": 4287,
      "anges": 4288,
      "Ġthrows": 4289,
      "Ġfishing": 4290,
      "aw": 4291,
      "lass": 4292,
      "Ġmeat": 4293,
      "Ġceiling": 4294,
      "Ġpassport": 4295,
      "Ġignored": 4296,
      "Ġjellyfish": 4297,
      "Ġslept": 4298,
      "ues": 4299,
      "Ġtax": 4300,
      "ĠBun": 4301,
      "Ġforgotten": 4302,
      "Ġcelebrated": 4303,
      "Ġradio": 4304,
      "Ġskirt": 4305,
      "Ġdoors": 4306,
      "ngth": 4307,
      "Ġteleph": 4308,
      "Ġjournal": 4309,
      "Next": 4310,
      "rs": 4311,
      "Ġoak": 4312,
      "Ġmakeup": 4313,
      "Ġheads": 4314,
      "Ġpresents": 4315,
      "Ġaccepted": 4316,
      "Ġtelephone": 4317,
      "Because": 4318,
      "arm": 4319,
      "Ġstro": 4320,
      "Ġallig": 4321,
      "Your": 4322,
      "agg": 4323,
      "Ġflame": 4324,
      "ĠdonÃ¢": 4325,
      "Ġstrength": 4326,
      "Ġvend": 4327,
      "Ġthrowing": 4328,
      "Ġpinch": 4329,
      "Today": 4330,
      "Ġinfant": 4331,
      "ents": 4332,
      "Ġvet": 4333,
      "Emma": 4334,
      "Ġfile": 4335,
      "chie": 4336,
      "Ġloop": 4337,
      "Ġswamp": 4338,
      "Ġambul": 4339,
      "Ġpoints": 4340,
      "Inside": 4341,
      "Together": 4342,
      "ĠTrue": 4343,
      "Ġapplaud": 4344,
      "Ġgrocer": 4345,
      "Ġtaxi": 4346,
      "Eventually": 4347,
      "drobe": 4348,
      "vision": 4349,
      "urch": 4350,
      "Ġalive": 4351,
      "Ġwriting": 4352,
      "Ġshouting": 4353,
      "Ġbaking": 4354,
      "Ġplanet": 4355,
      "Ġwardrobe": 4356,
      "Ġrubber": 4357,
      "te": 4358,
      "Ġcree": 4359,
      "ores": 4360,
      "Ġseas": 4361,
      "Ġworth": 4362,
      "Ġsung": 4363,
      "Ġcube": 4364,
      "Ġdiscu": 4365,
      "Ġsteam": 4366,
      "Ġwinter": 4367,
      "Ġlemonade": 4368,
      "achel": 4369,
      "Ġmagazine": 4370,
      "Ġpalace": 4371,
      "Ġcreek": 4372,
      "Ġwags": 4373,
      "Ġfle": 4374,
      "Ġitch": 4375,
      "bbie": 4376,
      "Ġshower": 4377,
      "ĠInstead": 4378,
      "Ġdiary": 4379,
      "Ġsquirrels": 4380,
      "Ġattach": 4381,
      "Ġfolder": 4382,
      "Ġhanging": 4383,
      "Ġtelevision": 4384,
      "Ġstrawberry": 4385,
      "bor": 4386,
      "ium": 4387,
      "Ġaut": 4388,
      "Ġstable": 4389,
      "Ġboot": 4390,
      "Ġquack": 4391,
      "Ġgreedy": 4392,
      "Ġfog": 4393,
      "ĠPapa": 4394,
      "ggy": 4395,
      "nam": 4396,
      "Ġinse": 4397,
      "ssible": 4398,
      "Ġflapped": 4399,
      "Ġparent": 4400,
      "Ġprepare": 4401,
      "ĠAb": 4402,
      "Ġhelper": 4403,
      "Ġknob": 4404,
      "ĠLilly": 4405,
      "Ġchalk": 4406,
      "Ġfollows": 4407,
      "Ġsailing": 4408,
      "Ġsurround": 4409,
      "Ġmystery": 4410,
      "Ġmedal": 4411,
      "Ġsprayed": 4412,
      "ito": 4413,
      "Ġpra": 4414,
      "icop": 4415,
      "Ġvac": 4416,
      "Ġornam": 4417,
      "Ġmoves": 4418,
      "ĠNext": 4419,
      "Ġdisappear": 4420,
      "Ġserve": 4421,
      "Ġhelicop": 4422,
      "Ġargue": 4423,
      "Ġalligator": 4424,
      "Ġambulance": 4425,
      "Ġhelicopter": 4426,
      "sit": 4427,
      "tress": 4428,
      "ĠHelp": 4429,
      "ĠBaby": 4430,
      "Ġgrin": 4431,
      "Ġbelow": 4432,
      "Ġsigns": 4433,
      "Ġfreez": 4434,
      "Ġmattress": 4435,
      "Ġharbor": 4436,
      "Ġwaving": 4437,
      "una": 4438,
      "ĠJess": 4439,
      "rosc": 4440,
      "Ġdressed": 4441,
      "Ġstud": 4442,
      "Ġeagerly": 4443,
      "ĠUn": 4444,
      "lasses": 4445,
      "Ġsunglasses": 4446,
      "ĠSu": 4447,
      "Ġknown": 4448,
      "ups": 4449,
      "Ġminute": 4450,
      "Ġmicrosc": 4451,
      "ÅĵItÃ¢": 4452,
      "Ġvendor": 4453,
      "ab": 4454,
      "lier": 4455,
      "Ġpopped": 4456,
      "Ġfiref": 4457,
      "Ġcherry": 4458,
      "Ġmicroscope": 4459,
      "case": 4460,
      "Ġwine": 4461,
      "ising": 4462,
      "imi": 4463,
      "igail": 4464,
      "Ġweigh": 4465,
      "Ġrequ": 4466,
      "Ġrooms": 4467,
      "Ġgrill": 4468,
      "Ġletting": 4469,
      "Ġfallen": 4470,
      "Ġapart": 4471,
      "ĠAnnie": 4472,
      "Ġfauc": 4473,
      "Ġpear": 4474,
      "Ġberry": 4475,
      "Ġrefre": 4476,
      "Ġcomplain": 4477,
      "Ġlanguage": 4478,
      "Did": 4479,
      "elcome": 4480,
      "Ġlawn": 4481,
      "estig": 4482,
      "ĠCo": 4483,
      "Ġblackboard": 4484,
      "Ġinvestig": 4485,
      "Ġeasily": 4486,
      "Ġwipe": 4487,
      "Ann": 4488,
      "mm": 4489,
      "Ġbreeze": 4490,
      "inky": 4491,
      "Ġheaded": 4492,
      "Ġquietly": 4493,
      "aggie": 4494,
      "Ġfaucet": 4495,
      "tain": 4496,
      "Ġsince": 4497,
      "Ġcared": 4498,
      "omob": 4499,
      "iday": 4500,
      "Ġthumb": 4501,
      "amb": 4502,
      "Ġcob": 4503,
      "Ġtaller": 4504,
      "Ġentered": 4505,
      "ĠGod": 4506,
      "Ġcrossed": 4507,
      "Ġwhisper": 4508,
      "Ġhappens": 4509,
      "Ġleak": 4510,
      "quito": 4511,
      "Ġpoked": 4512,
      "Ġsque": 4513,
      "Ġchairs": 4514,
      "Ġearlier": 4515,
      "Ġkisses": 4516,
      "Ġrelaxed": 4517,
      "Ġreverse": 4518,
      "Ġautomob": 4519,
      "Ġig": 4520,
      "Ġsuff": 4521,
      "Ġfought": 4522,
      "Ġpur": 4523,
      "atie": 4524,
      "Ġstad": 4525,
      "Ġmusician": 4526,
      "Ġregret": 4527,
      "Ġcrawling": 4528,
      "Ġimprove": 4529,
      "Ġexercise": 4530,
      "Ġigloo": 4531,
      "Ġstadium": 4532,
      "Ġwaste": 4533,
      "ĠIÃ¢": 4534,
      "Ġalarm": 4535,
      "Ġcaring": 4536,
      "Ġchurch": 4537,
      "asis": 4538,
      "Ġdelay": 4539,
      "Ġdresses": 4540,
      "Ġcrash": 4541,
      "Ġapron": 4542,
      "Ġsniffed": 4543,
      "Ġwaffle": 4544,
      "Ġvacation": 4545,
      "Ġrequest": 4546,
      "Ġwigg": 4547,
      "Ġlumber": 4548,
      "chor": 4549,
      "Ġcliff": 4550,
      "Ġfastest": 4551,
      "Ġbalan": 4552,
      "Ġolive": 4553,
      "Ġseparate": 4554,
      "Ġinvestigate": 4555,
      "liday": 4556,
      "web": 4557,
      "yer": 4558,
      "Ġsizes": 4559,
      "ĠTony": 4560,
      "Ġpoke": 4561,
      "Ġholiday": 4562,
      "Ġairpl": 4563,
      "Ġinsect": 4564,
      "'.": 4565,
      "Lisa": 4566,
      "Ġoasis": 4567,
      "Ġsaus": 4568,
      "ĠWho": 4569,
      "Ġvroom": 4570,
      "Ġsurprises": 4571,
      "Ġappro": 4572,
      "Ġsparkle": 4573,
      "Ġpuzzles": 4574,
      "Ġskills": 4575,
      "squito": 4576,
      "Ġcable": 4577,
      "uckily": 4578,
      "Ġmosquito": 4579,
      "Thanks": 4580,
      "Ġscrew": 4581,
      "orses": 4582,
      "Ġshrink": 4583,
      "Ġyogurt": 4584,
      "Ġaer": 4585,
      "ero": 4586,
      "Ġyield": 4587,
      "Ġreaches": 4588,
      "opl": 4589,
      "Ġlotion": 4590,
      "Ġamazement": 4591,
      "Ġdear": 4592,
      "Ġspots": 4593,
      "fortunately": 4594,
      "Ġbouncing": 4595,
      "Ġdestination": 4596,
      "Ġscattered": 4597,
      "Ġcobweb": 4598,
      "Ġaeropl": 4599,
      "iately": 4600,
      "ler": 4601,
      "right": 4602,
      "Ġtucked": 4603,
      "Ġhorses": 4604,
      "ety": 4605,
      "Ġisn": 4606,
      "mediately": 4607,
      "Ġincre": 4608,
      "Ġsupply": 4609,
      "Ġsplashing": 4610,
      "Ġlawyer": 4611,
      "Wait": 4612,
      "was": 4613,
      "Ġrake": 4614,
      "sters": 4615,
      "Ġoranges": 4616,
      "Ġfloat": 4617,
      "Ġmint": 4618,
      "Ġsafety": 4619,
      "Ġtrusted": 4620,
      "Ġdishwas": 4621,
      "Ġdishwasher": 4622,
      "mend": 4623,
      "oral": 4624,
      "Ġunif": 4625,
      "Ġhearts": 4626,
      "Ġmailman": 4627,
      "Ġcollected": 4628,
      "Ġflutter": 4629,
      "Ġyawned": 4630,
      "Ġvehicle": 4631,
      "ives": 4632,
      "Ġpit": 4633,
      "ommend": 4634,
      "ĠitÃ¢": 4635,
      "Ġanchor": 4636,
      "aces": 4637,
      "Ġblueberries": 4638,
      "Ġfloated": 4639,
      "Ġshrugged": 4640,
      "Ġshooting": 4641,
      "Ġsqueeze": 4642,
      "Ġbother": 4643,
      "Ġsaving": 4644,
      "Ġlaught": 4645,
      "Ġrabbits": 4646,
      "Ġcastles": 4647,
      "Ġrecommend": 4648,
      "Ġspending": 4649,
      "ĠBuzz": 4650,
      "Ġmuffin": 4651,
      "Ġautomobile": 4652,
      "Is": 4653,
      "nger": 4654,
      "Ġtut": 4655,
      "Ġtug": 4656,
      "inked": 4657,
      "icing": 4658,
      "place": 4659,
      "Ġpoppy": 4660,
      "ction": 4661,
      "Ġdemand": 4662,
      "ĠRe": 4663,
      "Ġchoice": 4664,
      "Ġexamine": 4665,
      "Ġachie": 4666,
      "omes": 4667,
      "Ġlicks": 4668,
      "raged": 4669,
      "Ġspade": 4670,
      "ops": 4671,
      "âĤ¬.": 4672,
      "Ġquiz": 4673,
      "Ġhurting": 4674,
      "Ġconf": 4675,
      "Ġsparkling": 4676,
      "Ġworms": 4677,
      "Ġcandles": 4678,
      "Ġexperience": 4679,
      "Ġribbon": 4680,
      "ĠJames": 4681,
      "Ġkneel": 4682,
      "Ġstruc": 4683,
      "Ġbookcase": 4684,
      "Ġfollowing": 4685,
      "Ġsqueezed": 4686,
      "Ġuniform": 4687,
      "Ġlaughter": 4688,
      "Ġstructure": 4689,
      "ĠBet": 4690,
      "ĠMimi": 4691,
      "Ġagree": 4692,
      "Ġeaten": 4693,
      "Ġburied": 4694,
      "Ġraz": 4695,
      "Ġremove": 4696,
      "Sammy": 4697,
      "Ġbumped": 4698,
      "Ġpenguin": 4699,
      "Ġpraised": 4700,
      "Ġsigh": 4701,
      "Ġmention": 4702,
      "Ġplates": 4703,
      "Ġbury": 4704,
      "ĠCharlie": 4705,
      "Ġbeans": 4706,
      "Ġinclud": 4707,
      "Ġvideo": 4708,
      "cakes": 4709,
      "Ġsings": 4710,
      "Ġtong": 4711,
      "Ġrise": 4712,
      "Ġplays": 4713,
      "Ġspear": 4714,
      "Ġsnap": 4715,
      "Ġchess": 4716,
      "Ġinstr": 4717,
      "Ġminer": 4718,
      "Ġfuel": 4719,
      "Ġflea": 4720,
      "nies": 4721,
      "sing": 4722,
      "ĊĠ": 4723,
      "Ġsimp": 4724,
      "Ġscooped": 4725,
      "Ġblinked": 4726,
      "Ġhills": 4727,
      "Ġtornado": 4728,
      "Yuck": 4729,
      "Ġwashing": 4730,
      "Ġequ": 4731,
      "Ġsnapped": 4732,
      "Ġunderstanding": 4733,
      "ĠOr": 4734,
      "Ġignore": 4735,
      "Ġringing": 4736,
      "Ġcaptain": 4737,
      "ival": 4738,
      "Ġbattery": 4739,
      "Ġsettled": 4740,
      "Ġdestroyed": 4741,
      "Ġrazor": 4742,
      "Ġdried": 4743,
      "Ġmall": 4744,
      "ionary": 4745,
      "Ġkeeping": 4746,
      "Ġideas": 4747,
      "Ġgrowled": 4748,
      "Ġblankets": 4749,
      "Ġappreciate": 4750,
      "ĠRuby": 4751,
      "Ġtoes": 4752,
      "Ġpalm": 4753,
      "ĠRachel": 4754,
      "Ġadmir": 4755,
      "ictionary": 4756,
      "ib": 4757,
      "Ġfest": 4758,
      "ĠHenry": 4759,
      "ĠMiss": 4760,
      "Ġmanage": 4761,
      "Ġwatches": 4762,
      "Ġglo": 4763,
      "Ġfireplace": 4764,
      "ĠKing": 4765,
      "Ġsits": 4766,
      "Ġenter": 4767,
      "Ġwandered": 4768,
      "ĠClara": 4769,
      "Ġsandcastle": 4770,
      "Ġaeroplane": 4771,
      "Will": 4772,
      "ived": 4773,
      "ĠTed": 4774,
      "Ġmyself": 4775,
      "omeday": 4776,
      "Ġlabel": 4777,
      "Ġbleed": 4778,
      "Peter": 4779,
      "apping": 4780,
      "Ġdictionary": 4781,
      "Ġport": 4782,
      "ĠHarry": 4783,
      "amber": 4784,
      "Ġbravely": 4785,
      "Ġcoats": 4786,
      "Ġmelted": 4787,
      "Ġtide": 4788,
      "Ġyucky": 4789,
      "alley": 4790,
      "Ġjunk": 4791,
      "ĠDanny": 4792,
      "Ġsetting": 4793,
      "Ġjewelry": 4794,
      "Ġstrawberries": 4795,
      "Ġyoga": 4796,
      "Ġoats": 4797,
      "Ġfreezer": 4798,
      "loe": 4799,
      "ring": 4800,
      "Ġtore": 4801,
      "ĠIts": 4802,
      "Ġscore": 4803,
      "Ġroot": 4804,
      "Ġclaws": 4805,
      "uggage": 4806,
      "Ġsneeze": 4807,
      "Ġstomach": 4808,
      "Ġtutor": 4809,
      "Ġluggage": 4810,
      "Ġpages": 4811,
      "Ġpride": 4812,
      "Ġtrade": 4813,
      "Ġclimbs": 4814,
      "Ġgifts": 4815,
      "With": 4816,
      "Ġsomeday": 4817,
      "bey": 4818,
      "ĠSpike": 4819,
      "Ġfloating": 4820,
      "Ġmoments": 4821,
      "Ġplanes": 4822,
      "Ġhits": 4823,
      "Ġvanished": 4824,
      "Ġscratch": 4825,
      "Ġairplane": 4826,
      "Fl": 4827,
      "Ġbeamed": 4828,
      "Ġprop": 4829,
      "Ġappear": 4830,
      "Mandy": 4831,
      "umble": 4832,
      "antly": 4833,
      "Ġbelieved": 4834,
      "Ġbeef": 4835,
      "Ġsub": 4836,
      "Ġrepeat": 4837,
      "Ġstruggling": 4838,
      "rise": 4839,
      "Ġga": 4840,
      "ĠIs": 4841,
      "Ġweap": 4842,
      "Ġblueberry": 4843,
      "Ġburning": 4844,
      "ĠBefore": 4845,
      "Ġtemple": 4846,
      "ah": 4847,
      "ls": 4848,
      "vet": 4849,
      "Ġdire": 4850,
      "Ġitem": 4851,
      "Ġchores": 4852,
      "Ġvalley": 4853,
      "Ġjogging": 4854,
      "emember": 4855,
      "Ġdrain": 4856,
      "Ġelephants": 4857,
      "Ġwhistling": 4858,
      "ĠSteve": 4859,
      "Ġweeks": 4860,
      "Ġtongue": 4861,
      "ĠTina": 4862,
      "ishing": 4863,
      "Ġgear": 4864,
      "Ġnation": 4865,
      "Ġshot": 4866,
      "Ġsport": 4867,
      "Ġimmediately": 4868,
      "Ġcalls": 4869,
      "Ġremain": 4870,
      "ission": 4871,
      "Ġcuddled": 4872,
      "Ġpermission": 4873,
      "Ġfestival": 4874,
      "Ġlily": 4875,
      "lend": 4876,
      "Ġhers": 4877,
      "Ġres": 4878,
      "Ġranch": 4879,
      "Ġchamber": 4880,
      "Ġpoison": 4881,
      "Ġsunrise": 4882,
      "Ġraise": 4883,
      "Ġcrunch": 4884,
      "Ġteaching": 4885,
      "Ġbathe": 4886,
      "house": 4887,
      "iers": 4888,
      "Ġhomes": 4889,
      "Ġpulling": 4890,
      "Ġsteak": 4891,
      "Ġpatiently": 4892,
      "Ġmarbles": 4893,
      "Ġbreathe": 4894,
      "Ġprovide": 4895,
      "Ġhesit": 4896,
      "ĠHave": 4897,
      "uture": 4898,
      "seek": 4899,
      "ĠEach": 4900,
      "aped": 4901,
      "Ġcalend": 4902,
      "Ġpeanuts": 4903,
      "ĠAbigail": 4904,
      "Ġcalendar": 4905,
      "'ve": 4906,
      "osed": 4907,
      "Ġfuture": 4908,
      "Ġstitch": 4909,
      "Ġjazz": 4910,
      "Ġspit": 4911,
      "Ġwarmth": 4912,
      "Ġpaused": 4913,
      "Ġbuckle": 4914,
      "Ġpastel": 4915,
      "Ġcollecting": 4916,
      "Ġticket": 4917,
      "ĠFreddy": 4918,
      "allow": 4919,
      "ipment": 4920,
      "Ġthrilled": 4921,
      "ĠGood": 4922,
      "Ġdifferen": 4923,
      "Ġhotel": 4924,
      "Ġprayed": 4925,
      "Ġapproached": 4926,
      "Ġgust": 4927,
      "Ġshed": 4928,
      "fume": 4929,
      "Ġalright": 4930,
      "Ġtease": 4931,
      "Ġwarning": 4932,
      "Ġencouraged": 4933,
      "Ġchirping": 4934,
      "Ġequipment": 4935,
      "Jen": 4936,
      "Mark": 4937,
      "Tweet": 4938,
      "Ġdaisy": 4939,
      "Ġbegged": 4940,
      "Ġsocks": 4941,
      "Ġshamp": 4942,
      "Ġcoal": 4943,
      "Ġskull": 4944,
      "Ġskipping": 4945,
      "Ġperfume": 4946,
      "Ġanswers": 4947,
      "Ġmissile": 4948,
      "Ġpanic": 4949,
      "Ġearthqu": 4950,
      "Ġpunish": 4951,
      "Ġinsisted": 4952,
      "Ġshampoo": 4953,
      "Ġcakes": 4954,
      "Ġnone": 4955,
      "Ġlick": 4956,
      "Ġrestore": 4957,
      "osity": 4958,
      "Ġsoldiers": 4959,
      "Ġtwisted": 4960,
      "mother": 4961,
      "These": 4962,
      "Ġmeowed": 4963,
      "Ġdoggy": 4964,
      "Ġhardly": 4965,
      "xture": 4966,
      "Ġguy": 4967,
      "Ġrespons": 4968,
      "Ġsolved": 4969,
      "Ġjewels": 4970,
      "Ġreceived": 4971,
      "Ġobserve": 4972,
      "Qu": 4973,
      "Welcome": 4974,
      "Ġlect": 4975,
      "Ġevent": 4976,
      "Ġsore": 4977,
      "Ġlic": 4978,
      "Ġsew": 4979,
      "Ġunite": 4980,
      "Ġreceive": 4981,
      "Ġbricks": 4982,
      "Ġrevealed": 4983,
      "Ġlecture": 4984,
      "Ouch": 4985,
      "fy": 4986,
      "Ġpist": 4987,
      "anna": 4988,
      "Ġbites": 4989,
      "Ġdeeper": 4990,
      "Ġordered": 4991,
      "Ġpistol": 4992,
      "act": 4993,
      "Ġbang": 4994,
      "Ġdigg": 4995,
      "Ġsty": 4996,
      "Ġfasc": 4997,
      "Ġcopper": 4998,
      "Ġcomfy": 4999,
      "Ġparts": 5000,
      "Ġmatches": 5001,
      "Ġpatterns": 5002,
      "Ġrecognized": 5003,
      "Ġrefreshed": 5004,
      "Ġemer": 5005,
      "Ġremained": 5006,
      "Ġworks": 5007,
      "Ġinvite": 5008,
      "ĠCoco": 5009,
      "Ġdigging": 5010,
      "Ġsip": 5011,
      "ities": 5012,
      "Ġrow": 5013,
      "Ġupstairs": 5014,
      "Ġjail": 5015,
      "Ġchir": 5016,
      "ases": 5017,
      "Ġblood": 5018,
      "Johnny": 5019,
      "Ġdrinking": 5020,
      "Ġwarn": 5021,
      "Ġsupposed": 5022,
      "All": 5023,
      "Ġhate": 5024,
      "ĠJul": 5025,
      "Ġracing": 5026,
      "Ġmustache": 5027,
      "Ġdiscovery": 5028,
      "ÅĵThatÃ¢": 5029,
      "ĠPeople": 5030,
      "Ġdiscuss": 5031,
      "Ġgrinned": 5032,
      "Ġchirped": 5033,
      "cc": 5034,
      "sity": 5035,
      "ari": 5036,
      "Ġrush": 5037,
      "Ġwherever": 5038,
      "Ġours": 5039,
      "Ġbookshe": 5040,
      "Ġcircus": 5041,
      "Ġurge": 5042,
      "Ġmeasured": 5043,
      "Ġsimple": 5044,
      "Ġfascin": 5045,
      "\",": 5046,
      "utty": 5047,
      "ĠMay": 5048,
      "Ġgirls": 5049,
      "Ġspill": 5050,
      "ĠLater": 5051,
      "Ġdecision": 5052,
      "Ġsunlight": 5053,
      "Ġmass": 5054,
      "Ġplanted": 5055,
      "Ġgrape": 5056,
      "Ġlicense": 5057,
      "bers": 5058,
      "eed": 5059,
      "lvet": 5060,
      "riger": 5061,
      "Ġeff": 5062,
      "Ġbeg": 5063,
      "aper": 5064,
      "Ġjogged": 5065,
      "Ġreplace": 5066,
      "Ġcrashed": 5067,
      "Ġvelvet": 5068,
      "Ġpigs": 5069,
      "Ġapologize": 5070,
      "Ġrefriger": 5071,
      "Ġbuzzing": 5072,
      "Ġsuffer": 5073,
      "Ġearthquake": 5074,
      "Ġrefrigerator": 5075,
      "Mmm": 5076,
      "Ġbak": 5077,
      "Ġobey": 5078,
      "allen": 5079,
      "ĠEveryday": 5080,
      "Ġglowed": 5081,
      "ĠPenny": 5082,
      "Ġwrites": 5083,
      "Ġactually": 5084,
      "Ġclearing": 5085,
      "oved": 5086,
      "Ġheat": 5087,
      "!\",": 5088,
      "Ġnewsp": 5089,
      "Ġraised": 5090,
      "ÅĵNo": 5091,
      "Ġbringing": 5092,
      "Ġeasier": 5093,
      "Ġselling": 5094,
      "Ġuniversity": 5095,
      "Ġweapon": 5096,
      "Ġdifference": 5097,
      "Sh": 5098,
      "tory": 5099,
      "ĠV": 5100,
      "Ġbill": 5101,
      "Ġhistory": 5102,
      "Ġchallen": 5103,
      "ĠJoy": 5104,
      "Ġrested": 5105,
      "Ġmarching": 5106,
      "Ġbathrobe": 5107,
      "Ġinvit": 5108,
      "Ġawe": 5109,
      "Ġsettle": 5110,
      "Ġcartoons": 5111,
      "Ġbookshelf": 5112,
      "Ġtoe": 5113,
      "oming": 5114,
      "Ġgain": 5115,
      "htray": 5116,
      "Ġashtray": 5117,
      "Ġworse": 5118,
      "Ġlaid": 5119,
      "Ġlets": 5120,
      "Ġturning": 5121,
      "Ġcontinue": 5122,
      "Ġsparkles": 5123,
      "Ġlands": 5124,
      "Before": 5125,
      "Ġdecorations": 5126,
      "Ġprepared": 5127,
      "kins": 5128,
      "Ġbes": 5129,
      "Ġfed": 5130,
      "enty": 5131,
      "Ġwhip": 5132,
      "Ġscur": 5133,
      "Ġflood": 5134,
      "ĠFo": 5135,
      "Ġstrang": 5136,
      "Ġremem": 5137,
      "ĠNot": 5138,
      "Ġcompany": 5139,
      "Ġspoons": 5140,
      "Ġfirefight": 5141,
      "ĠRemy": 5142,
      "Ġdare": 5143,
      "Ġslip": 5144,
      "Ġwatered": 5145,
      "Ġhated": 5146,
      "Ġagreement": 5147,
      "Ġbrick": 5148,
      "Ġmenu": 5149,
      "Ġremembers": 5150,
      "ging": 5151,
      "Ġtremb": 5152,
      "bbled": 5153,
      "Ġproblems": 5154,
      "ude": 5155,
      "Ġsoared": 5156,
      "ĠMilly": 5157,
      "Ġfash": 5158,
      "Ġpossible": 5159,
      "izard": 5160,
      "Ġfamil": 5161,
      "Ġchewed": 5162,
      "irpy": 5163,
      "Ġadmiring": 5164,
      "Ġcrunchy": 5165,
      "Ġmitten": 5166,
      "Ġwanting": 5167,
      "Ġbrus": 5168,
      "Ġattached": 5169,
      "Ġexamined": 5170,
      "Ġtomatoes": 5171,
      "Ġdisagre": 5172,
      "Jake": 5173,
      "Would": 5174,
      "fied": 5175,
      "walk": 5176,
      "Ġweren": 5177,
      "indy": 5178,
      "Ġmonsters": 5179,
      "looking": 5180,
      "Ġsprinkles": 5181,
      "Ġbeside": 5182,
      "Moral": 5183,
      "Ġtip": 5184,
      "ĠLiz": 5185,
      "Ġslice": 5186,
      "Ġfixing": 5187,
      "Ġpracticing": 5188,
      "Ġvillag": 5189,
      "ÅĵIÃ¢": 5190,
      "Ġneighborhood": 5191,
      "Ġpupil": 5192,
      "Ġcurled": 5193,
      "Ġstrangers": 5194,
      "ha": 5195,
      "atch": 5196,
      "Ġrust": 5197,
      "Ġflap": 5198,
      "Ġoper": 5199,
      "Ġgrey": 5200,
      "Ġbrain": 5201,
      "Ġcub": 5202,
      "Ġtrapped": 5203,
      "Ġtracks": 5204,
      "ĠKatie": 5205,
      "Ġmouths": 5206,
      "Ġfreeze": 5207,
      "Really": 5208,
      "Ġgrocery": 5209,
      "Ġsurrounded": 5210,
      "Ġeffort": 5211,
      "Ġnewspaper": 5212,
      "Ex": 5213,
      "cles": 5214,
      "hest": 5215,
      "Ġcal": 5216,
      "Ġonwards": 5217,
      "Ġweight": 5218,
      "ĠDan": 5219,
      "Ġpeel": 5220,
      "Ġwond": 5221,
      "Ġcontain": 5222,
      "Ġcutting": 5223,
      "Ġgloves": 5224,
      "Ro": 5225,
      "Ġwre": 5226,
      "Ġbun": 5227,
      "Ġhanger": 5228,
      "ĠLuna": 5229,
      "Ġflav": 5230,
      "ĠChloe": 5231,
      "Emily": 5232,
      "nie": 5233,
      "xy": 5234,
      "Ġwaist": 5235,
      "Ġduring": 5236,
      "ays": 5237,
      "ora": 5238,
      "Ġspaces": 5239,
      "omething": 5240,
      "Ġperched": 5241,
      "Ġcomple": 5242,
      "Ġsidewalk": 5243,
      "Ġcollection": 5244,
      "Ġsafari": 5245,
      "Ġseats": 5246,
      "Ġguns": 5247,
      "Ġpinched": 5248,
      "Ġescaped": 5249,
      "Ġrides": 5250,
      "Ġmodel": 5251,
      "Ġsubway": 5252,
      "Ġvillagers": 5253,
      "Ġrhy": 5254,
      "asp": 5255,
      "Ġdownstairs": 5256,
      "Ġrained": 5257,
      "Ġtalent": 5258,
      "ĠNutty": 5259,
      "Ġbowed": 5260,
      "Ġbuildings": 5261,
      "Ġpaints": 5262,
      "Ġreminder": 5263,
      "Ġwisdom": 5264,
      "Ġargued": 5265,
      "ĠBubbles": 5266,
      "Ġcostumes": 5267,
      "Ġsausage": 5268,
      "Not": 5269,
      "ĠSund": 5270,
      "aded": 5271,
      "Ġwaits": 5272,
      "Ġdrinks": 5273,
      "Ġwhistled": 5274,
      "Ġintroduc": 5275,
      "Ġfashion": 5276,
      "uing": 5277,
      "Ġwizard": 5278,
      "Ġmister": 5279,
      "ĠBeth": 5280,
      "Ġmudd": 5281,
      "Ġgotten": 5282,
      "Ġzipped": 5283,
      "Ġfiremen": 5284,
      "Ġvisiting": 5285,
      "ĠFloppy": 5286,
      "Ġaccidents": 5287,
      "Ġsliding": 5288,
      "Ġtwigs": 5289,
      "Ġmemory": 5290,
      "Ġpermit": 5291,
      "Fluffy": 5292,
      "Le": 5293,
      "do": 5294,
      "dam": 5295,
      "neath": 5296,
      "Ġx": 5297,
      "Ġsix": 5298,
      "Ġwid": 5299,
      "Ġpitch": 5300,
      "ĠHoppy": 5301,
      "adly": 5302,
      "ĠMaggie": 5303,
      "ĠFro": 5304,
      "Ġpeered": 5305,
      "ĠCat": 5306,
      "thm": 5307,
      "Ġzero": 5308,
      "Ġsteel": 5309,
      "Ġpetted": 5310,
      "Ġpancakes": 5311,
      "Ġprice": 5312,
      "Ġdinosaurs": 5313,
      "Ġmineral": 5314,
      "Ġbleeding": 5315,
      "Ġmuddy": 5316,
      "Ha": 5317,
      "Ġbones": 5318,
      "Ġweighed": 5319,
      "Ġpears": 5320,
      "Ġanytime": 5321,
      "Ġeagle": 5322,
      "Ġmountains": 5323,
      "Ġmeasuring": 5324,
      "Ġbunnies": 5325,
      "Ok": 5326,
      "Sometimes": 5327,
      "Yum": 5328,
      "ided": 5329,
      "Ġsting": 5330,
      "isten": 5331,
      "Ġpearl": 5332,
      "ÅĵThank": 5333,
      "Ġneighbors": 5334,
      "Ġfolded": 5335,
      "ĠChr": 5336,
      "Ġhurric": 5337,
      "reen": 5338,
      "Ġlamb": 5339,
      "Ġnavy": 5340,
      "Ġarea": 5341,
      "Ġbrid": 5342,
      "Ġbrushed": 5343,
      "Ġchef": 5344,
      "Ġvoices": 5345,
      "Ġshopping": 5346,
      "avi": 5347,
      "ĠOl": 5348,
      "Ġscratched": 5349,
      "Ġgrandmother": 5350,
      "Ġencourage": 5351,
      "Ġpadd": 5352,
      "Ġprune": 5353,
      "!'": 5354,
      "Ġbrings": 5355,
      "Ġmeow": 5356,
      "Ġdecides": 5357,
      "Ġbeds": 5358,
      "Ġswims": 5359,
      "Ġpets": 5360,
      "Ġbottles": 5361,
      "ĠSomeone": 5362,
      "Ġpillows": 5363,
      "Ġguessed": 5364,
      "Ġpedal": 5365,
      "Ġmassage": 5366,
      "Ġwonders": 5367,
      "ĠOnce": 5368,
      "Ġlung": 5369,
      "Ġripped": 5370,
      "riage": 5371,
      "Ġleather": 5372,
      "Ġsnowball": 5373,
      "Ġsecrets": 5374,
      "Ġcomforted": 5375,
      "Ġinvitation": 5376,
      "Ġhurricane": 5377,
      "cage": 5378,
      "mare": 5379,
      "son": 5380,
      "ides": 5381,
      "amie": 5382,
      "Ġhappiest": 5383,
      "ĠMat": 5384,
      "terday": 5385,
      "ica": 5386,
      "Ġbirdcage": 5387,
      "Ġrang": 5388,
      "Ġoverjoy": 5389,
      "ĠPoppy": 5390,
      "ĠLetÃ¢": 5391,
      "Ġcatching": 5392,
      "ĠChirpy": 5393,
      "ĠAnne": 5394,
      "Ġcuddle": 5395,
      "Ġornament": 5396,
      "ĠSuzy": 5397,
      "Ġfascinated": 5398,
      "Ġdisagreed": 5399,
      "Ġoverjoyed": 5400,
      "cious": 5401,
      "Ġscoop": 5402,
      "ĠLucky": 5403,
      "Ġstruck": 5404,
      "Ġglitter": 5405,
      "Ġunderground": 5406,
      "Ġstole": 5407,
      "Ġmarkers": 5408,
      "Ġzooming": 5409,
      "Ġwaffles": 5410,
      "Ready": 5411,
      "Ġinstruct": 5412,
      "Ġstyle": 5413,
      "Ġoperation": 5414,
      "xygen": 5415,
      "Ġrhythm": 5416,
      "Or": 5417,
      "ĠThese": 5418,
      "igz": 5419,
      "Ġpretti": 5420,
      "Ġsnail": 5421,
      "Ġkindly": 5422,
      "Ġpupp": 5423,
      "Ġbrand": 5424,
      "Ġnightmare": 5425,
      "Ġactiv": 5426,
      "ĠHowever": 5427,
      "Ġsneezed": 5428,
      "Ġrecognize": 5429,
      "Ġbridges": 5430,
      "Ġprettiest": 5431,
      "First": 5432,
      "Ġrele": 5433,
      "Ġexact": 5434,
      "Ġeveryday": 5435,
      "Ġblouse": 5436,
      "Ġvowed": 5437,
      "Ġteasp": 5438,
      "Ġrail": 5439,
      "Ġcones": 5440,
      "Ġtastes": 5441,
      "Ġdrift": 5442,
      "Ġsatis": 5443,
      "Ġwooden": 5444,
      "Ġdoctors": 5445,
      "laire": 5446,
      "Ġhurried": 5447,
      "Ġsucceeded": 5448,
      "Ġdisturbed": 5449,
      "Ġtravell": 5450,
      "ĠBetsy": 5451,
      "Ġteaspoon": 5452,
      "Susie": 5453,
      "mble": 5454,
      "oed": 5455,
      "Ġtugged": 5456,
      "Ġbare": 5457,
      "ĠMe": 5458,
      "Ġcontro": 5459,
      "Ġpiles": 5460,
      "Ġstudied": 5461,
      "Ġbillboard": 5462,
      "ĠSunday": 5463,
      "gers": 5464,
      "Ġoxygen": 5465,
      "etch": 5466,
      "Ġstruggled": 5467,
      "Ġimage": 5468,
      "Ġbye": 5469,
      "aster": 5470,
      "ÅĵLook": 5471,
      "Ġkeeps": 5472,
      "Ġcrept": 5473,
      "Ġtune": 5474,
      "Ġacorns": 5475,
      "Ġmuffins": 5476,
      "Ġlips": 5477,
      "ĠSharing": 5478,
      "Ġitems": 5479,
      "rin": 5480,
      "uke": 5481,
      "Ġlines": 5482,
      "Ġcaut": 5483,
      "ĠSomething": 5484,
      "Ġtremble": 5485,
      "anta": 5486,
      "Ġunderneath": 5487,
      "ÅĵDon": 5488,
      "Ġladyb": 5489,
      "Ġperfor": 5490,
      "Ġplanned": 5491,
      "Ġserved": 5492,
      "Ġbloomed": 5493,
      "Ġincluded": 5494,
      "Ġspaceship": 5495,
      "Happy": 5496,
      "len": 5497,
      "uzz": 5498,
      "imy": 5499,
      "Ġloving": 5500,
      "Ġofficer": 5501,
      "avid": 5502,
      "Ġsuitc": 5503,
      "Ġparked": 5504,
      "Ġscreams": 5505,
      "Ġtickets": 5506,
      "Ġsoaring": 5507,
      "Ġmentioned": 5508,
      "Ġresponsible": 5509,
      "Ġbegin": 5510,
      "ding": 5511,
      "Ġwagging": 5512,
      "Ġbeat": 5513,
      "Ġbeard": 5514,
      "ĠItÃ¢": 5515,
      "Ġsorting": 5516,
      "ÅĵWe": 5517,
      "Ġkeeper": 5518,
      "Ġcreation": 5519,
      "ffic": 5520,
      "Ġtraffic": 5521,
      "Ġlandsc": 5522,
      "Ġneighbourhood": 5523,
      "Ġcompleted": 5524,
      "Luckily": 5525,
      "Ġtonight": 5526,
      "ĠTiny": 5527,
      "Ġeight": 5528,
      "Ġeats": 5529,
      "Ġhonk": 5530,
      "Ġsights": 5531,
      "Ġshivered": 5532,
      "Ġpotatoes": 5533,
      "Ġolives": 5534,
      "Dave": 5535,
      "Rex": 5536,
      "Remember": 5537,
      "Ġdied": 5538,
      "Ġgained": 5539,
      "Ġbend": 5540,
      "Ġcuriosity": 5541,
      "Ġemergen": 5542,
      "Ġscurried": 5543,
      "Ġintroduced": 5544,
      "Ġinstructions": 5545,
      "Ġvent": 5546,
      "Ġprecious": 5547,
      "izing": 5548,
      "Ġpaintings": 5549,
      "Andy": 5550,
      "Ġdecorated": 5551,
      "Ġuniverse": 5552,
      ".'": 5553,
      "George": 5554,
      "Ġnicer": 5555,
      "Ġago": 5556,
      "Ġwhatever": 5557,
      "Ġrealize": 5558,
      "Ġsteep": 5559,
      "ĠJenna": 5560,
      "Ġaccom": 5561,
      "Ġmachines": 5562,
      "Ġmovies": 5563,
      "Ġcompetition": 5564,
      "Ġshadows": 5565,
      "Ġprunes": 5566,
      "Ġexactly": 5567,
      "Ġsi": 5568,
      "Ġann": 5569,
      "Ġrocked": 5570,
      "Ġdraws": 5571,
      "Ġguest": 5572,
      "Ġprotected": 5573,
      "Ġsolut": 5574,
      "uctantly": 5575,
      "igzag": 5576,
      "Ġlandscape": 5577,
      "ux": 5578,
      "zen": 5579,
      "Ġsadness": 5580,
      "Ġslapped": 5581,
      "Ġowned": 5582,
      "ĠRa": 5583,
      "Ġbeha": 5584,
      "Ġprinter": 5585,
      "Ġfrosting": 5586,
      "Ġbeneath": 5587,
      "Ġpowers": 5588,
      "Ġintroduce": 5589,
      "lowly": 5590,
      "Ġproperly": 5591,
      "Ġwreck": 5592,
      "uxu": 5593,
      "Mar": 5594,
      "bies": 5595,
      "Ġbank": 5596,
      "ĠSunny": 5597,
      "Ġinch": 5598,
      "bert": 5599,
      "ĠJosh": 5600,
      "Ġshoulders": 5601,
      "Ġyelling": 5602,
      "Ġcontest": 5603,
      "Ġpouring": 5604,
      "Ġlemons": 5605,
      "Ġlibrarian": 5606,
      "Ġstealing": 5607,
      "âĤ¬âĢĿ": 5608,
      "Ġrubbing": 5609,
      "Ġpenguins": 5610,
      "Ġreleased": 5611,
      "Ye": 5612,
      "ales": 5613,
      "Ġluxu": 5614,
      "ĠTw": 5615,
      "Ġweb": 5616,
      "Ġknelt": 5617,
      "ĠRob": 5618,
      "Ġruin": 5619,
      "Ġbabies": 5620,
      "Ġsisters": 5621,
      "iggy": 5622,
      "Ġmixing": 5623,
      "Ġkeys": 5624,
      "ĠOllie": 5625,
      "Ġgathering": 5626,
      "Ġtwirling": 5627,
      "Ġsilence": 5628,
      "Ġurged": 5629,
      "fit": 5630,
      "hins": 5631,
      "rr": 5632,
      "ashed": 5633,
      "Ġstruggle": 5634,
      "Ġpurred": 5635,
      "Ġcontrol": 5636,
      "omas": 5637,
      "Ġtheirs": 5638,
      "Ġsorted": 5639,
      "Ġforgi": 5640,
      "Joey": 5641,
      "Ġfrozen": 5642,
      "Ġreluctantly": 5643,
      "Ġunlocked": 5644,
      "Ġcrackers": 5645,
      "Ġfireworks": 5646,
      "Ġbarely": 5647,
      "Ġaccompl": 5648,
      "mel": 5649,
      "Ġsides": 5650,
      "Ġmice": 5651,
      "ishes": 5652,
      "Ġsoak": 5653,
      "ĠBir": 5654,
      "Ġshock": 5655,
      "Ġoutdo": 5656,
      "Ġexit": 5657,
      "Ġbudge": 5658,
      "ĠCar": 5659,
      "Ġdragged": 5660,
      "Ġcrumb": 5661,
      "Ġmuscles": 5662,
      "Ġspiders": 5663,
      "Ġpunished": 5664,
      "Ġstripes": 5665,
      "Ġchallenge": 5666,
      "Teddy": 5667,
      "iar": 5668,
      "Ġdam": 5669,
      "Ġloose": 5670,
      "Ġoutfit": 5671,
      "ĠAn": 5672,
      "ÅĵCan": 5673,
      "Ġpastels": 5674,
      "Ġbouncy": 5675,
      "Ġdolphins": 5676,
      "ĠFrank": 5677,
      "Ġrepeated": 5678,
      "Ġachieve": 5679,
      "zing": 5680,
      "Ġ1": 5681,
      "ĠHop": 5682,
      "ppers": 5683,
      "Ġranger": 5684,
      "agull": 5685,
      "ĠFirst": 5686,
      "Ġopin": 5687,
      "thank": 5688,
      "though": 5689,
      "Ġwaiter": 5690,
      "Ġbreaking": 5691,
      "Ġprinted": 5692,
      "Ġwinning": 5693,
      "Ġpockets": 5694,
      "Ġexpect": 5695,
      "Ġexpected": 5696,
      "Ġroads": 5697,
      "Ġroaring": 5698,
      "Ġfigured": 5699,
      "ĠZoe": 5700,
      "Ġemergency": 5701,
      "rance": 5702,
      "Ġthro": 5703,
      "Ġlied": 5704,
      "Ġchases": 5705,
      "Ġbecoming": 5706,
      "bbing": 5707,
      "Ġbuckets": 5708,
      "Ġmission": 5709,
      "ĠStop": 5710,
      "Ġpoliceman": 5711,
      "uesday": 5712,
      "Ġbrushes": 5713,
      "Ġthroat": 5714,
      "ien": 5715,
      "shing": 5716,
      "edding": 5717,
      "ĠTuesday": 5718,
      "ĠBig": 5719,
      "Ġseagull": 5720,
      "Ġclick": 5721,
      "ĠDid": 5722,
      "Ġpeaches": 5723,
      "Ġslimy": 5724,
      "ĠletÃ¢": 5725,
      "Ġwondering": 5726,
      "Ġplanets": 5727,
      "Ġentire": 5728,
      "Ġstirring": 5729,
      "Ġscreaming": 5730,
      "Ġclaps": 5731,
      "Ġdiscovering": 5732,
      "Ġcamping": 5733,
      "Ġcrowd": 5734,
      "ĠUncle": 5735,
      "Kitty": 5736,
      "pected": 5737,
      "Ġwest": 5738,
      "Ġtour": 5739,
      "Ġpies": 5740,
      "ĠLike": 5741,
      "Ġsnugg": 5742,
      "Ġsitu": 5743,
      "Ġstaring": 5744,
      "Ġstretching": 5745,
      "Ġsneaked": 5746,
      "Ġapplauded": 5747,
      "Ġincrease": 5748,
      "Ġguys": 5749,
      "ÅĵDonÃ¢": 5750,
      "Bella": 5751,
      "Un": 5752,
      "ĠJan": 5753,
      "Ġhomework": 5754,
      "Ġhowever": 5755,
      "ĠCindy": 5756,
      "Ġunex": 5757,
      "Ġseesaw": 5758,
      "Ġacted": 5759,
      "Ġspraying": 5760,
      "Ġcountryside": 5761,
      "Ġbalancing": 5762,
      "Ġsiren": 5763,
      "Ġunexpected": 5764,
      "die": 5765,
      "zie": 5766,
      "Ġboo": 5767,
      "Ġfart": 5768,
      "itely": 5769,
      "Ġda": 5770,
      "lee": 5771,
      "Ġworries": 5772,
      "Ġgoodnight": 5773,
      "Ġtouching": 5774,
      "Ġhighest": 5775,
      "Ġgiggling": 5776,
      "Goodbye": 5777,
      "ĠAlways": 5778,
      "Ġconfident": 5779,
      "Ġtrembling": 5780,
      "Ġcautious": 5781,
      "Ġsuitcase": 5782,
      "Ġoutdoors": 5783,
      "James": 5784,
      "Mr": 5785,
      "Pete": 5786,
      "bric": 5787,
      "jam": 5788,
      "ern": 5789,
      "Ġheel": 5790,
      "Ġmittens": 5791,
      "ĠSanta": 5792,
      "Ġallow": 5793,
      "Ġfabric": 5794,
      "Ġteasing": 5795,
      "Ġbroom": 5796,
      "Ġourselves": 5797,
      "ults": 5798,
      "Ġmarriage": 5799,
      "Ġpassing": 5800,
      "Ġscru": 5801,
      "Ġleader": 5802,
      "ĠUnfortunately": 5803,
      "Ġdemanded": 5804,
      "Ġsighs": 5805,
      "Ġladybug": 5806,
      "jamas": 5807,
      "hell": 5808,
      "Ġcape": 5809,
      "ĠTilly": 5810,
      "Ġplenty": 5811,
      "Ġscra": 5812,
      "Ġmatching": 5813,
      "Ġrainbows": 5814,
      "Ġentrance": 5815,
      "Ġsupplies": 5816,
      "Ġshivering": 5817,
      "Ġnails": 5818,
      "Ġdirection": 5819,
      "annah": 5820,
      "Ġluxury": 5821,
      "Ella": 5822,
      "Henry": 5823,
      "Mike": 5824,
      "Mittens": 5825,
      "vers": 5826,
      "Ġripe": 5827,
      "Ġstare": 5828,
      "Ġrelease": 5829,
      "inda": 5830,
      "Ġflat": 5831,
      "Ġvict": 5832,
      "ĠDavid": 5833,
      "Ġgrant": 5834,
      "ĠGr": 5835,
      "Ġsweets": 5836,
      "Ġbaked": 5837,
      "ulu": 5838,
      "Ġreaching": 5839,
      "Ġwinner": 5840,
      "Ġcompletely": 5841,
      "ĠJulie": 5842,
      "Ġsatisfied": 5843,
      "Ġsolution": 5844,
      "dies": 5845,
      "Ġmater": 5846,
      "essie": 5847,
      "aky": 5848,
      "Ġgreet": 5849,
      "Ġtexture": 5850,
      "Ġrestored": 5851,
      "Ġcuts": 5852,
      "...": 5853,
      "Ġtwinkling": 5854,
      "Ġmateri": 5855,
      "Ah": 5856,
      "Lola": 5857,
      "nes": 5858,
      "Ġti": 5859,
      "Ġwedding": 5860,
      "Ġheav": 5861,
      "ĠBy": 5862,
      "ĠLizzy": 5863,
      "ason": 5864,
      "Ġpoking": 5865,
      "ĠPip": 5866,
      "aced": 5867,
      "Ġsweeties": 5868,
      "Ġproject": 5869,
      "Ġcurly": 5870,
      "Ġsurface": 5871,
      "Ġcurtains": 5872,
      "Ġseason": 5873,
      "ĠJessie": 5874,
      "Ġbalanced": 5875,
      "Ġresult": 5876,
      "ody": 5877,
      "vin": 5878,
      "ĠYes": 5879,
      "Ġbunch": 5880,
      "Ġfara": 5881,
      "Ġge": 5882,
      "Ġeast": 5883,
      "ĠJon": 5884,
      "aren": 5885,
      "Ġsnakes": 5886,
      "ÅĵHello": 5887,
      "Ġwritten": 5888,
      "Ġpajamas": 5889,
      "Ġsinger": 5890,
      "ĠDolly": 5891,
      "Ġrolls": 5892,
      "Ġpastries": 5893,
      "Ġinterest": 5894,
      "Ġrescued": 5895,
      "Ġloaded": 5896,
      "cuse": 5897,
      "lowers": 5898,
      "Ġquacked": 5899,
      "Ġfaraway": 5900,
      "uly": 5901,
      "Ġwound": 5902,
      "ednes": 5903,
      "ĠSlowly": 5904,
      "ĠMad": 5905,
      "ĠJe": 5906,
      "Ġcomm": 5907,
      "Ġforehead": 5908,
      "Ġunited": 5909,
      "acob": 5910,
      "Ġzigzag": 5911,
      "Ġpolishing": 5912,
      "Ġmarker": 5913,
      "ĠOut": 5914,
      "Ġprayer": 5915,
      "Ġhorns": 5916,
      "Ġmelting": 5917,
      "Ġrecorded": 5918,
      "Ġstudying": 5919,
      "Ġtasks": 5920,
      "Ġpaddle": 5921,
      "Ġinclude": 5922,
      "Ġburrow": 5923,
      "Ġdisagree": 5924,
      "Ġkneeled": 5925,
      "Leo": 5926,
      "ednesday": 5927,
      "Paul": 5928,
      "ĠQu": 5929,
      "Ġboom": 5930,
      "ĠWednesday": 5931,
      "Ġflames": 5932,
      "Ġstrings": 5933,
      "ÅĵThis": 5934,
      "Ġcreating": 5935,
      "Ġmatched": 5936,
      "Ġdeser": 5937,
      "Ġtrips": 5938,
      "Ġcrabs": 5939,
      "Ġmagnets": 5940,
      "Ġshelves": 5941,
      "Excuse": 5942,
      "eep": 5943,
      "ĠSure": 5944,
      "Ġstair": 5945,
      "icorn": 5946,
      "Ġcatches": 5947,
      "Ġslap": 5948,
      "Ġbravery": 5949,
      "Ġunicorn": 5950,
      "Ġtowels": 5951,
      "Ġkicking": 5952,
      "Ġcheering": 5953,
      "ophia": 5954,
      "Ġvanish": 5955,
      "Ġdusty": 5956,
      "Ġphotos": 5957,
      "Bun": 5958,
      "pe": 5959,
      "Ëľ": 5960,
      "Ġwink": 5961,
      "Ġdent": 5962,
      "ena": 5963,
      "igi": 5964,
      "une": 5965,
      "Ġstartled": 5966,
      "âĤ¬Ëľ": 5967,
      "Ġchat": 5968,
      "Ġblink": 5969,
      "Ġpebbles": 5970,
      "ledge": 5971,
      "Ġbedtime": 5972,
      "Ġreplaced": 5973,
      "Ġsingle": 5974,
      "Ġdragons": 5975,
      "Ġmotion": 5976,
      "However": 5977,
      "Ġpencils": 5978,
      "Ġbumps": 5979,
      "Ġstamps": 5980,
      "Ġweeping": 5981,
      "Ġitchy": 5982,
      "Ġornaments": 5983,
      "Ġgazed": 5984,
      "Ġventured": 5985,
      "Fred": 5986,
      "go": 5987,
      "hee": 5988,
      "Ġsway": 5989,
      "Ġfetch": 5990,
      "irm": 5991,
      "ĠBird": 5992,
      "ĠBye": 5993,
      "ĠAdam": 5994,
      "Ġhugging": 5995,
      "Ġknowledge": 5996,
      "Ġtruly": 5997,
      "Ġworker": 5998,
      "Ġcracked": 5999,
      "Ġbuying": 6000,
      "Ġhealed": 6001,
      "Ġmisses": 6002,
      "Ġarguing": 6003,
      "Annie": 6004,
      "Ġregretted": 6005,
      "Alex": 6006,
      "cers": 6007,
      "reat": 6008,
      "ayla": 6009,
      "ĠFor": 6010,
      "ĠClaire": 6011,
      "Ġremoved": 6012,
      "ÅĵMommy": 6013,
      "Ġwrist": 6014,
      "Ġfoods": 6015,
      "Ġtractor": 6016,
      "Ġrainco": 6017,
      "Ġsticking": 6018,
      "Ġusually": 6019,
      "Ġprints": 6020,
      "Ġdrives": 6021,
      "ĠwasnÃ¢": 6022,
      "Ġpolished": 6023,
      "angled": 6024,
      "Ġpatience": 6025,
      "Ġrelief": 6026,
      "Ġrockets": 6027,
      "Ġtickle": 6028,
      "Ġcovers": 6029,
      "Ġsandcastles": 6030,
      "Ġactivities": 6031,
      "Ġfarther": 6032,
      "Ġraincoat": 6033,
      "Fr": 6034,
      "Mrs": 6035,
      "boo": 6036,
      "cope": 6037,
      "iles": 6038,
      "Ġrumble": 6039,
      "Ġstern": 6040,
      "Ġshined": 6041,
      "Ġcans": 6042,
      "ĠJamie": 6043,
      "Ġroots": 6044,
      "ĠPipp": 6045,
      "Ġexplorers": 6046,
      "Ġstolen": 6047,
      "Ġusual": 6048,
      "ĠNick": 6049,
      "Ġopening": 6050,
      "Afterwards": 6051,
      "Ġgrowling": 6052,
      "hog": 6053,
      "Ġchewing": 6054,
      "Ġflags": 6055,
      "Ġpeeking": 6056,
      "Grandpa": 6057,
      "Ġstrike": 6058,
      "Ġobserved": 6059,
      "ĠChrist": 6060,
      "ĠRabbit": 6061,
      "melia": 6062,
      "lings": 6063,
      "you": 6064,
      "int": 6065,
      "Ġcent": 6066,
      "Ġpout": 6067,
      "ĠSadly": 6068,
      "ords": 6069,
      "ĠLarry": 6070,
      "usted": 6071,
      "ÅĵOh": 6072,
      "Ġsmiley": 6073,
      "Ġuses": 6074,
      "Ġyells": 6075,
      "Ġpartic": 6076,
      "Ġthreat": 6077,
      "Ġcoloured": 6078,
      "Ġglasses": 6079,
      "Ġtraveled": 6080,
      "Yeah": 6081,
      "Millie": 6082,
      "Sandy": 6083,
      "Ġbumpy": 6084,
      "Ġrisk": 6085,
      "Ġyouth": 6086,
      "Ġspike": 6087,
      "opes": 6088,
      "Ġfault": 6089,
      "Ġchips": 6090,
      "Ġfoc": 6091,
      "Ġsnat": 6092,
      "Ġrocking": 6093,
      "Ġruler": 6094,
      "Ġgrowl": 6095,
      "Ġcelebration": 6096,
      "Ġherbs": 6097,
      "abel": 6098,
      "Ġfirefighters": 6099,
      "ĠMatt": 6100,
      "mas": 6101,
      "per": 6102,
      "rious": 6103,
      "indr": 6104,
      "Ġchuck": 6105,
      "asm": 6106,
      "ĠCarl": 6107,
      "Ġraindr": 6108,
      "ÅĵWhy": 6109,
      "Ġstaying": 6110,
      "oys": 6111,
      "Ġowners": 6112,
      "Ġteaches": 6113,
      "Ġdesert": 6114,
      "Ġvalued": 6115,
      "Ġtickled": 6116,
      "Ġsilent": 6117,
      "Ġfreed": 6118,
      "Ġseems": 6119,
      "Ġsquares": 6120,
      "Ġrubs": 6121,
      "Ġhedgehog": 6122,
      "Ġimproved": 6123,
      "ĠRover": 6124,
      "Ġseashell": 6125,
      "Ġsquealed": 6126,
      "Ġcrumbs": 6127,
      "Ġvictory": 6128,
      "jo": 6129,
      "Ġdipped": 6130,
      "oni": 6131,
      "Ġsobbed": 6132,
      "ĠChe": 6133,
      "ĠPl": 6134,
      "ĠPinky": 6135,
      "Ġlistens": 6136,
      "ĠThomas": 6137,
      "Ġrule": 6138,
      "Ġyesterday": 6139,
      "Ġcreamy": 6140,
      "Ġpatted": 6141,
      "Ġfuzzy": 6142,
      "Ġtemper": 6143,
      "Ġparticular": 6144,
      "Sophie": 6145,
      "Ġtodd": 6146,
      "Ġfirm": 6147,
      "Ġden": 6148,
      "aty": 6149,
      "Ġbead": 6150,
      "Ġexha": 6151,
      "ĠWater": 6152,
      "Ġlap": 6153,
      "ĠLuckily": 6154,
      "ĠLinda": 6155,
      "ĠLulu": 6156,
      "bbly": 6157,
      "Ġpeppers": 6158,
      "Ġcoloring": 6159,
      "ĠGreen": 6160,
      "Ġcaused": 6161,
      "ĠLeave": 6162,
      "Ġadding": 6163,
      "Ġwandering": 6164,
      "Ġwiggled": 6165,
      "Ġfamilies": 6166,
      "ĠChristmas": 6167,
      "Bobby": 6168,
      "Cl": 6169,
      "Polly": 6170,
      "oh": 6171,
      "hello": 6172,
      "Ġcash": 6173,
      "iding": 6174,
      "ences": 6175,
      "ĠĊĠ": 6176,
      "opsy": 6177,
      "ĠGigi": 6178,
      "Ġworkers": 6179,
      "ĠEmmy": 6180,
      "Ġwinked": 6181,
      "Ġsafer": 6182,
      "Ġreveal": 6183,
      "Ġtwinkle": 6184,
      "Ġgaze": 6185,
      "Ġopinion": 6186,
      "Ġsituation": 6187,
      "Ġraindrops": 6188,
      "pite": 6189,
      "Ġast": 6190,
      "Ġcous": 6191,
      "Ġdared": 6192,
      "Ġpause": 6193,
      "isies": 6194,
      "esome": 6195,
      "Ġech": 6196,
      "ĠBoth": 6197,
      "Ġnect": 6198,
      "ĠMany": 6199,
      "ĠcanÃ¢": 6200,
      "Ġfaced": 6201,
      "Ġchoo": 6202,
      "Ġneedles": 6203,
      "itches": 6204,
      "Ġresting": 6205,
      "Ġarrive": 6206,
      "Ġagrees": 6207,
      "Ġpacking": 6208,
      "Ġactions": 6209,
      "ĠOwl": 6210,
      "Bobo": 6211,
      "Grace": 6212,
      "Ġunpacked": 6213,
      "ĠJessica": 6214,
      "Ġdaisies": 6215,
      "Ġexhausted": 6216,
      "Ġnectar": 6217,
      "Fine": 6218,
      "Uh": 6219,
      "band": 6220,
      "eke": 6221,
      "fl": 6222,
      "Ġtim": 6223,
      "Ġaff": 6224,
      "Ġlined": 6225,
      "Ġcough": 6226,
      "Ġwasted": 6227,
      "ley": 6228,
      "ĠyouÃ¢": 6229,
      "Ġgoals": 6230,
      "urry": 6231,
      "Ġmane": 6232,
      "Ġswooped": 6233,
      "ĠFriend": 6234,
      "Ġdeli": 6235,
      "ĠNan": 6236,
      "oline": 6237,
      "Ġbowls": 6238,
      "Ġinviting": 6239,
      "Ġpleasure": 6240,
      "Ġnetwork": 6241,
      "Ġawesome": 6242,
      "Ġjackets": 6243,
      "Ġdelivered": 6244,
      "Ġscrubbed": 6245,
      "Ġtemperature": 6246,
      "Days": 6247,
      "Rose": 6248,
      "njoy": 6249,
      "Ġcause": 6250,
      "arter": 6251,
      "immer": 6252,
      "Ġliqu": 6253,
      "Ġsmarter": 6254,
      "Ġrobb": 6255,
      "ongo": 6256,
      "ĠSpark": 6257,
      "Ġbehavi": 6258,
      "Ġreads": 6259,
      "Ġdarkness": 6260,
      "Ġfairies": 6261,
      "Ġmarked": 6262,
      "Ġwarri": 6263,
      "Ġspeaking": 6264,
      "Ġblooming": 6265,
      "Ġcopy": 6266,
      "Ġhallway": 6267,
      "Ġgroceries": 6268,
      "Ġliquid": 6269,
      "udy": 6270,
      "Ġwow": 6271,
      "eds": 6272,
      "Ġhi": 6273,
      "Ġpiggy": 6274,
      "ĠSus": 6275,
      "ĠHappy": 6276,
      "Ġsoaked": 6277,
      "Ġwears": 6278,
      "Ġscales": 6279,
      "Ġfever": 6280,
      "ĠLuke": 6281,
      "Ġknees": 6282,
      "Ġimportance": 6283,
      "uggles": 6284,
      "Ġprincesses": 6285,
      "Ġreply": 6286,
      "Ġblows": 6287,
      "ĠSnuggles": 6288,
      "Ġwires": 6289,
      "Ġachieved": 6290,
      "ĠFollow": 6291,
      "Ġcalmed": 6292,
      "Ġdrifted": 6293,
      "Ġcautiously": 6294,
      "Ġsnatched": 6295,
      "Maggie": 6296,
      "ĠĠĊ": 6297,
      "Ġty": 6298,
      "irts": 6299,
      "Ġstem": 6300,
      "Ġseven": 6301,
      "ĠJones": 6302,
      "Ġsomebody": 6303,
      "ĠEls": 6304,
      "Ġyourselves": 6305,
      "ĠwouldnÃ¢": 6306,
      "Ġcowb": 6307,
      "izzie": 6308,
      "Ġleading": 6309,
      "Ġribbons": 6310,
      "Ġrecommended": 6311,
      "Ġinterested": 6312,
      "Ġchuckled": 6313,
      "Ġbeads": 6314,
      "Ġdelivery": 6315,
      "ossible": 6316,
      "Ġsense": 6317,
      "Ġbars": 6318,
      "Ġglee": 6319,
      "Ġspong": 6320,
      "ĠJay": 6321,
      "Ġswirl": 6322,
      "Ġtwin": 6323,
      "emma": 6324,
      "Ġimpossible": 6325,
      "boat": 6326,
      "Ġpots": 6327,
      "ĠOw": 6328,
      "Ġmasks": 6329,
      "ÅĵWhatÃ¢": 6330,
      "Ġfluttered": 6331,
      "Ġbakery": 6332,
      "Ġsnowballs": 6333,
      "Ġdentist": 6334,
      "mies": 6335,
      "Ġmes": 6336,
      "ĠTess": 6337,
      "igning": 6338,
      "Ġrip": 6339,
      "Ġkites": 6340,
      "Ġlosing": 6341,
      "Ġremote": 6342,
      "Ġbadge": 6343,
      "Ġdreamt": 6344,
      "Ġnaps": 6345,
      "Ġnapkins": 6346,
      "Ġorganizing": 6347,
      "Ġwipes": 6348,
      "ĠZoom": 6349,
      "Ġknights": 6350,
      "Ġhelmets": 6351,
      "Ġtempt": 6352,
      "Ġstroll": 6353,
      "Ġstroked": 6354,
      "Ġpaddled": 6355,
      "Ġforgiven": 6356,
      "Ġmesmer": 6357,
      "Harry": 6358,
      "ik": 6359,
      "Ġlimes": 6360,
      "ĠAbbie": 6361,
      "ĠElly": 6362,
      "usband": 6363,
      "Ġlearns": 6364,
      "Ġjoking": 6365,
      "Ġcloses": 6366,
      "Ġfroze": 6367,
      "ĠJohnson": 6368,
      "Ġpointy": 6369,
      "Ġsecure": 6370,
      "ĠBeing": 6371,
      "Ġawake": 6372,
      "Ġpedals": 6373,
      "Ġbaker": 6374,
      "Ġannoy": 6375,
      "Unfortunately": 6376,
      "Ġcashier": 6377,
      "mallow": 6378,
      "Ġopp": 6379,
      "arling": 6380,
      "Ġbelly": 6381,
      "Ġcolored": 6382,
      "Ġhider": 6383,
      "Ġprotecting": 6384,
      "Ġpassen": 6385,
      "Ġsplashes": 6386,
      "Ġdetermination": 6387,
      "Ġseeker": 6388,
      "Ġfilling": 6389,
      "Ġradishes": 6390,
      "arshmallow": 6391,
      "Ġstomped": 6392,
      "ĠSuzie": 6393,
      "Tweety": 6394,
      "Ab": 6395,
      "ĠY": 6396,
      "ĠSorry": 6397,
      "Ġinsp": 6398,
      "ades": 6399,
      "ĠAmelia": 6400,
      "Ġnoses": 6401,
      "ĠMomo": 6402,
      "ĠPut": 6403,
      "Ġdeal": 6404,
      "Ġstorekeeper": 6405,
      "ĠDoggy": 6406,
      "Ġtallest": 6407,
      "Ġmuscle": 6408,
      "Ġtails": 6409,
      "Ġsigned": 6410,
      "Ġscaring": 6411,
      "Ġscarves": 6412,
      "Ġcandies": 6413,
      "Ġleaning": 6414,
      "Ġgiraff": 6415,
      "Ġobjects": 6416,
      "Ġsneaky": 6417,
      "Ġaccomplish": 6418,
      "Ġtipt": 6419,
      "Ġwarrior": 6420,
      "Ġsponge": 6421,
      "va": 6422,
      "Ġtig": 6423,
      "Ġaud": 6424,
      "Ġsib": 6425,
      "Ġhusband": 6426,
      "ouch": 6427,
      "iled": 6428,
      "Ġrising": 6429,
      "endy": 6430,
      "alph": 6431,
      "ĠJacob": 6432,
      "?\",": 6433,
      "Ġbacked": 6434,
      "Ġleap": 6435,
      "Ġmeals": 6436,
      "ĠWatch": 6437,
      "Ġeverybody": 6438,
      "ishy": 6439,
      "Ġcreations": 6440,
      "Ġunf": 6441,
      "ĠGet": 6442,
      "Ġafterwards": 6443,
      "Ġhealth": 6444,
      "brush": 6445,
      "Ġmiles": 6446,
      "Ġzookeeper": 6447,
      "Ġrecording": 6448,
      "Ġarrows": 6449,
      "Ġartist": 6450,
      "Ġcheeks": 6451,
      "Charlie": 6452,
      "Ġsnuggle": 6453,
      "Ġgiraffes": 6454,
      "Ġtigers": 6455,
      "For": 6456,
      "tuce": 6457,
      "vest": 6458,
      "ans": 6459,
      "Ġweeke": 6460,
      "ĠBongo": 6461,
      "itted": 6462,
      "ĠMira": 6463,
      "Ġaren": 6464,
      "icky": 6465,
      "Ġflapping": 6466,
      "Ġchip": 6467,
      "Ġlettuce": 6468,
      "Ġdancers": 6469,
      "Ġconn": 6470,
      "Ġconcer": 6471,
      "ĠPam": 6472,
      "ths": 6473,
      "Ġarr": 6474,
      "Ġsteer": 6475,
      "Ġparties": 6476,
      "Ġhides": 6477,
      "Ġmarks": 6478,
      "Ġdiving": 6479,
      "Ġsalty": 6480,
      "Ġgracefully": 6481,
      "Ġavoid": 6482,
      "Ġhesitated": 6483,
      "ĠGoodbye": 6484,
      "Ġtravelled": 6485,
      "ĠJeff": 6486,
      "Ġweekend": 6487,
      "Fin": 6488,
      "Ġcust": 6489,
      "Ġdots": 6490,
      "Ġmi": 6491,
      "ilo": 6492,
      "ann": 6493,
      "Ġthird": 6494,
      "Ġyum": 6495,
      "Ġfeast": 6496,
      "ĠLou": 6497,
      "aura": 6498,
      "Ġslices": 6499,
      "Ġsnuck": 6500,
      "ĠCra": 6501,
      "Ġracc": 6502,
      "ĠPrin": 6503,
      "Ġhandsome": 6504,
      "Ġdef": 6505,
      "Ġtricked": 6506,
      "Ġsailboat": 6507,
      "ĠFlopsy": 6508,
      "Ġpotion": 6509,
      "ments": 6510,
      "Ġburst": 6511,
      "Ġdiscussed": 6512,
      "Ġhesitant": 6513,
      "ĠNothing": 6514,
      "Ġrusty": 6515,
      "Ġtalented": 6516,
      "Ġtoddler": 6517,
      "Ġafford": 6518,
      "Ġcustom": 6519,
      "Ġraccoon": 6520,
      "aa": 6521,
      "ners": 6522,
      "uzzy": 6523,
      "Ġtangled": 6524,
      "Ġhissed": 6525,
      "ĠMa": 6526,
      "icked": 6527,
      "ĠFar": 6528,
      "Ġslam": 6529,
      "Ġdrawn": 6530,
      "Ġcorners": 6531,
      "Ġspoonful": 6532,
      "Ġpans": 6533,
      "Ġrequested": 6534,
      "ĠBetty": 6535,
      "Ġdirect": 6536,
      "Ġlungs": 6537,
      "Ġsiblings": 6538,
      "An": 6539,
      "Katie": 6540,
      "zes": 6541,
      "Ġcott": 6542,
      "Ġdie": 6543,
      "ids": 6544,
      "llen": 6545,
      "Ġneither": 6546,
      "Ġbackwards": 6547,
      "ept": 6548,
      "Ġflight": 6549,
      "ĠEarth": 6550,
      "Ġswept": 6551,
      "Ġhandful": 6552,
      "ĠRobby": 6553,
      "Ġprinting": 6554,
      "Ġpretends": 6555,
      "Ġdarker": 6556,
      "Ġsnowmen": 6557,
      "Ġembarrass": 6558,
      "Ġfolding": 6559,
      "Ġpumpkins": 6560,
      "Ġlogs": 6561,
      "Ġwraps": 6562,
      "ivity": 6563,
      "Ġsausages": 6564,
      "Ġfluttering": 6565,
      "Maria": 6566,
      "Ġtiptoed": 6567,
      "Ġmixture": 6568,
      "Boo": 6569,
      "ded": 6570,
      "eal": 6571,
      "pit": 6572,
      "Ġlower": 6573,
      "ility": 6574,
      "Ġrus": 6575,
      "ickey": 6576,
      "Ġchop": 6577,
      "ĠEnjoy": 6578,
      "Ġgrandp": 6579,
      "Ġgrabbing": 6580,
      "ĠJacky": 6581,
      "Ġadult": 6582,
      "Those": 6583,
      "ĠPo": 6584,
      "Ġdrawers": 6585,
      "ĠKayla": 6586,
      "Ġgasp": 6587,
      "ĠZoomy": 6588,
      "Meow": 6589,
      "ĠBuzzy": 6590,
      "Ġsuperheroes": 6591,
      "Ġinsects": 6592,
      "Ġwidened": 6593,
      "ĠPippin": 6594,
      "Ġcousin": 6595,
      "Ġaudience": 6596,
      "Great": 6597,
      "Ru": 6598,
      "Ġwins": 6599,
      "Ġocc": 6600,
      "Ġbeam": 6601,
      "ĠBinky": 6602,
      "ĠAunt": 6603,
      "Ġfears": 6604,
      "Ġworn": 6605,
      "Ġcond": 6606,
      "Ġwilling": 6607,
      "aker": 6608,
      "Ġwindy": 6609,
      "Ġgrassy": 6610,
      "Ġrivers": 6611,
      "umbling": 6612,
      "Ġstarfish": 6613,
      "Ġclowns": 6614,
      "Ġrefle": 6615,
      "Ġbasement": 6616,
      "Ġexperien": 6617,
      "Ġfamiliar": 6618,
      "Ġflavor": 6619,
      "Ġchefs": 6620,
      "Ġperforman": 6621,
      "Ġbeginning": 6622,
      "Ew": 6623,
      "abby": 6624,
      "cited": 6625,
      "no": 6626,
      "Ġgross": 6627,
      "ĠSophia": 6628,
      "sequ": 6629,
      "Ġrefu": 6630,
      "ĠMon": 6631,
      "ĠJazz": 6632,
      "iece": 6633,
      "Ġdads": 6634,
      "Ġbully": 6635,
      "Ġconsequ": 6636,
      "Ġuns": 6637,
      "Ġsnowfl": 6638,
      "Ġcreativity": 6639,
      "Ġforgetting": 6640,
      "Ġwrapping": 6641,
      "Ġcelebrating": 6642,
      "Toby": 6643,
      "Ġpaying": 6644,
      "Ġknocks": 6645,
      "Ġcomplained": 6646,
      "ĠRobert": 6647,
      "Ġsprinkled": 6648,
      "Ġfirefighter": 6649,
      "Roar": 6650,
      "ĠOlive": 6651,
      "Ġheavier": 6652,
      "Ġpouted": 6653,
      "ĠPrincess": 6654,
      "Ġgrandpare": 6655,
      "Run": 6656,
      "Whee": 6657,
      "Ġmerry": 6658,
      "ĠHoot": 6659,
      "Ġropes": 6660,
      "ados": 6661,
      "Ġwept": 6662,
      "Ġreass": 6663,
      "ĠMel": 6664,
      "Ġbodies": 6665,
      "ĠJune": 6666,
      "using": 6667,
      "ĠJojo": 6668,
      "Ġstays": 6669,
      "obody": 6670,
      "retty": 6671,
      "Ġkicks": 6672,
      "Ġshrinking": 6673,
      "Ġrecipe": 6674,
      "Ġsource": 6675,
      "Ġindeed": 6676,
      "Ġforks": 6677,
      "Ġscratches": 6678,
      "Ġavocados": 6679,
      "Ġseparated": 6680,
      "Ġprovided": 6681,
      "Ġsurroundings": 6682,
      "Shh": 6683,
      "ĠFox": 6684,
      "Ġpuppies": 6685,
      "Bad": 6686,
      "Danny": 6687,
      "Ellie": 6688,
      "Kate": 6689,
      "tle": 6690,
      "Ġwadd": 6691,
      "ĠHannah": 6692,
      "Ġrings": 6693,
      "Ġspikes": 6694,
      "ĠLizzie": 6695,
      "aula": 6696,
      "ĠEverybody": 6697,
      "iley": 6698,
      "Ġdollhouse": 6699,
      "Ġcrew": 6700,
      "ĠGary": 6701,
      "Ġbeloved": 6702,
      "ĠKeep": 6703,
      "Ġattack": 6704,
      "ĠWithout": 6705,
      "ĠBluey": 6706,
      "Ġtricky": 6707,
      "Ġseconds": 6708,
      "Ġhumans": 6709,
      "Ġpresses": 6710,
      "Ġincluding": 6711,
      "Ġgranted": 6712,
      "ĠFriends": 6713,
      "Ġconsequences": 6714,
      "?'": 6715,
      "Bl": 6716,
      "Milly": 6717,
      "Nemo": 6718,
      "cake": 6719,
      "fall": 6720,
      "wk": 6721,
      "Ġhour": 6722,
      "Ġdarling": 6723,
      "Ġmaster": 6724,
      "Ġnine": 6725,
      "Ġhawk": 6726,
      "Ġstool": 6727,
      "Ġplucked": 6728,
      "Ġgobbled": 6729,
      "ĠAbby": 6730,
      "Ġglued": 6731,
      "Ġdresser": 6732,
      "ĠNina": 6733,
      "athan": 6734,
      "Ġmagician": 6735,
      "Ġtalks": 6736,
      "Ġplans": 6737,
      "Ġneighbours": 6738,
      "Ġhoriz": 6739,
      "Ġwishing": 6740,
      "Ġedges": 6741,
      "Ġtunnels": 6742,
      "Ġgems": 6743,
      "Ġdelivering": 6744,
      "Ġneatly": 6745,
      "Ġinstrum": 6746,
      "Ġbehaved": 6747,
      "ĠGranny": 6748,
      "Ġdeserve": 6749,
      "Ġtimer": 6750,
      "Fo": 6751,
      "Wh": 6752,
      "urious": 6753,
      "Ġtouc": 6754,
      "ĠSpl": 6755,
      "ĠBessie": 6756,
      "Ġteased": 6757,
      "Ġamong": 6758,
      "Ġruining": 6759,
      "ĠJaney": 6760,
      "Ġscrews": 6761,
      "Ġsailors": 6762,
      "Ġplanning": 6763,
      "ĠStay": 6764,
      "Ġcrossing": 6765,
      "Ġlollipops": 6766,
      "Ġsymbols": 6767,
      "Ġbuzzed": 6768,
      "Ġwarnings": 6769,
      "Ġswimsuit": 6770,
      "Ġmaterials": 6771,
      "ĠSusan": 6772,
      "Ġaccomplishment": 6773,
      "Ġrushing": 6774,
      "Ġperformance": 6775,
      "Ġhorizon": 6776,
      "Nina": 6777,
      "Some": 6778,
      "Tw": 6779,
      "rig": 6780,
      "the": 6781,
      "Ġhitting": 6782,
      "Ġmarshmallow": 6783,
      "Ġpens": 6784,
      "Ġonward": 6785,
      "choo": 6786,
      "Ġspices": 6787,
      "Ġhelpers": 6788,
      "Ġfact": 6789,
      "Ġage": 6790,
      "ĠLi": 6791,
      "ĠListen": 6792,
      "Ġflas": 6793,
      "ÅĵDo": 6794,
      "Ġremembering": 6795,
      "Ġamount": 6796,
      "Ġblocking": 6797,
      "ĠOur": 6798,
      "Ġpaths": 6799,
      "Ġdrums": 6800,
      "ĠZara": 6801,
      "Ġdesigns": 6802,
      "Ġmushrooms": 6803,
      "ronaut": 6804,
      "Ġcobwebs": 6805,
      "Ġastronaut": 6806,
      "Ġechoed": 6807,
      "Ġdirections": 6808,
      "Ġtouches": 6809,
      "Dan": 6810,
      "Even": 6811,
      "Ġmer": 6812,
      "atur": 6813,
      "Ġsan": 6814,
      "Ġstung": 6815,
      "Ġonions": 6816,
      "Ġplayers": 6817,
      "step": 6818,
      "Ġleast": 6819,
      "Ġbru": 6820,
      "Ġteles": 6821,
      "Ġraces": 6822,
      "Ġstrongest": 6823,
      "ĠRemember": 6824,
      "Ġchoices": 6825,
      "Ġbaskets": 6826,
      "Ġforgets": 6827,
      "Ġpeacefully": 6828,
      "Ġmatters": 6829,
      "Ġtested": 6830,
      "Ġresisted": 6831,
      "ĠRobbie": 6832,
      "ÅĵYouÃ¢": 6833,
      "ably": 6834,
      "Ġwiggle": 6835,
      "Ġdamage": 6836,
      "Ġscraped": 6837,
      "Ruby": 6838,
      "Ġmarshmallows": 6839,
      "Ġtelescope": 6840,
      "Pe": 6841,
      "Time": 6842,
      "Tina": 6843,
      "fire": 6844,
      "tier": 6845,
      "ĠQ": 6846,
      "Ġcor": 6847,
      "ĠSqu": 6848,
      "ĠSque": 6849,
      "rip": 6850,
      "Ġyounger": 6851,
      "ntil": 6852,
      "ĠWell": 6853,
      "ĠEl": 6854,
      "Ġvines": 6855,
      "Ġprettier": 6856,
      "ÅĵWow": 6857,
      "ÅĵMy": 6858,
      "Ġconvers": 6859,
      "Ġgrowls": 6860,
      "Ġbaths": 6861,
      "Ġimagining": 6862,
      "Ġhonked": 6863,
      "Ġgenie": 6864,
      "Ġpoems": 6865,
      "Ġminerals": 6866,
      "Ġrustling": 6867,
      "ĠTwo": 6868,
      "Ġgreeted": 6869,
      "Ġpassengers": 6870,
      "Ġoccas": 6871,
      "Ġsank": 6872,
      "During": 6873,
      "Kim": 6874,
      "dges": 6875,
      "iel": 6876,
      "now": 6877,
      "Ġtuck": 6878,
      "ition": 6879,
      "Ġmast": 6880,
      "Ġmunch": 6881,
      "aying": 6882,
      "Ġstitches": 6883,
      "Ġneare": 6884,
      "ĠJudy": 6885,
      "Ġscient": 6886,
      "Ġadults": 6887,
      "Ġache": 6888,
      "Ġnearly": 6889,
      "Ġcuriously": 6890,
      "Ġrespond": 6891,
      "Ġimages": 6892,
      "ĠStitch": 6893,
      "Ġfeeding": 6894,
      "Ġvanilla": 6895,
      "Ġpraying": 6896,
      "Ġborrowed": 6897,
      "artha": 6898,
      "Ġcushions": 6899,
      "manda": 6900,
      "Ġcomplaining": 6901,
      "Ġincreased": 6902,
      "ĠFrog": 6903,
      "Ġbehaving": 6904,
      "Ġcommun": 6905,
      "immering": 6906,
      "Ġbehavior": 6907,
      "Ġmesmerized": 6908,
      "ĠFarmer": 6909,
      "Ġunsure": 6910,
      "Ġscientist": 6911,
      "By": 6912,
      "Ducky": 6913,
      "May": 6914,
      "Mad": 6915,
      "aired": 6916,
      "ky": 6917,
      "lves": 6918,
      "Ġcoral": 6919,
      "ĠTara": 6920,
      "Ġsale": 6921,
      "Ġplaytime": 6922,
      "Ġnotes": 6923,
      "allowed": 6924,
      "ĠWendy": 6925,
      "ĠLena": 6926,
      "Ġswallowed": 6927,
      "ueen": 6928,
      "Ġtramp": 6929,
      "Ġtwice": 6930,
      "Ġwobbly": 6931,
      "Ġdances": 6932,
      "Ġzipping": 6933,
      "ĠAsh": 6934,
      "Ġjoyful": 6935,
      "Ġstands": 6936,
      "Ġdrivers": 6937,
      "Ġhopeful": 6938,
      "Ġrepaired": 6939,
      "Ġsunflowers": 6940,
      "Ġenthusi": 6941,
      "Ġrewarded": 6942,
      "Ġcenter": 6943,
      "rigued": 6944,
      "Ġtrampoline": 6945,
      "Have": 6946,
      "Our": 6947,
      "Oops": 6948,
      "Ġcoup": 6949,
      "Ġpours": 6950,
      "Ġoh": 6951,
      "Ġnibb": 6952,
      "ĠSc": 6953,
      "Ġnoon": 6954,
      "Ġscen": 6955,
      "Ġcoc": 6956,
      "Ġflown": 6957,
      "ĠEx": 6958,
      "Ġswords": 6959,
      "Ġtreehouse": 6960,
      "Ġtrot": 6961,
      "Ġbraver": 6962,
      "Ġwobble": 6963,
      "Ġwobbled": 6964,
      "ÅĵHi": 6965,
      "ÅĵWell": 6966,
      "Ġdropping": 6967,
      "Ġhearing": 6968,
      "attered": 6969,
      "Ġhealing": 6970,
      "Ġaction": 6971,
      "Ġspreading": 6972,
      "ĠMikey": 6973,
      "ĠFroggy": 6974,
      "ĠBirthday": 6975,
      "Ġgeese": 6976,
      "Ġarranged": 6977,
      "Ġenthusiasm": 6978,
      "Ġcouple": 6979,
      "dri": 6980,
      "ippy": 6981,
      "weed": 6982,
      "yes": 6983,
      "initely": 6984,
      "itched": 6985,
      "itude": 6986,
      "Ġdet": 6987,
      "atul": 6988,
      "Ġnood": 6989,
      "Ġease": 6990,
      "ĠMouse": 6991,
      "ĠMilo": 6992,
      "ĠMickey": 6993,
      "idey": 6994,
      "Ġjugg": 6995,
      "Ġspins": 6996,
      "Ġblast": 6997,
      "ĠFuzzy": 6998,
      "Ġpecked": 6999,
      "Ġslips": 7000,
      "iona": 7001,
      "Ġfinal": 7002,
      "Ġfinishing": 7003,
      "ĠPr": 7004,
      "acy": 7005,
      "Ġwarmer": 7006,
      "Ġsandpit": 7007,
      "Ġlighter": 7008,
      "Ġslower": 7009,
      "Ġelf": 7010,
      "anging": 7011,
      "Ġprove": 7012,
      "Ġbeeh": 7013,
      "ĠThanks": 7014,
      "Ġwiping": 7015,
      "Ġheroes": 7016,
      "Ġencourag": 7017,
      "Ġtriangles": 7018,
      "Ġrefreshing": 7019,
      "Ġtravelling": 7020,
      "Ġguests": 7021,
      "Ġ10": 7022,
      "ĠQuack": 7023,
      "ĠQueen": 7024,
      "--": 7025,
      "Like": 7026,
      "bell": 7027,
      "bird": 7028,
      "ĊĊ": 7029,
      "Ġ2": 7030,
      "Ġaimed": 7031,
      "Ġsadd": 7032,
      "ĠSmo": 7033,
      "imon": 7034,
      "Ġthorn": 7035,
      "ĠHolly": 7036,
      "veral": 7037,
      "Ġplain": 7038,
      "adie": 7039,
      "Ġshirts": 7040,
      "Ġreason": 7041,
      "ĠMabel": 7042,
      "Ġseveral": 7043,
      "ĠLaura": 7044,
      "Ġflips": 7045,
      "Ġposs": 7046,
      "Ġexplo": 7047,
      "Ġoffic": 7048,
      "ÅĵMom": 7049,
      "ÅĵCome": 7050,
      "ÅĵNow": 7051,
      "Ġthrown": 7052,
      "Ġdefe": 7053,
      "ĠNobody": 7054,
      "Ġsteady": 7055,
      "Ġpennies": 7056,
      "Ġseaweed": 7057,
      "Ġlifting": 7058,
      "Ġacting": 7059,
      "ertain": 7060,
      "ĠAlthough": 7061,
      "Ġantic": 7062,
      "Ġexamining": 7063,
      "Ġseller": 7064,
      "Ġawo": 7065,
      "ĠUnder": 7066,
      "Ġcampfire": 7067,
      "Ġoysters": 7068,
      "Ġbreathed": 7069,
      "Ġvideos": 7070,
      "Ġfirefly": 7071,
      "Ġyielded": 7072,
      "Ġfocused": 7073,
      "ĠElsa": 7074,
      "Ġdefinitely": 7075,
      "Follow": 7076,
      "Br": 7077,
      "Lilly": 7078,
      "Pat": 7079,
      "Tr": 7080,
      "Yummy": 7081,
      "ears": 7082,
      "yond": 7083,
      "Ġsy": 7084,
      "Ġfaded": 7085,
      "ĠSun": 7086,
      "anes": 7087,
      "Ġbeyond": 7088,
      "Ġstain": 7089,
      "rie": 7090,
      "stick": 7091,
      "Ġscamp": 7092,
      "Ġchos": 7093,
      "Ġpeck": 7094,
      "Ġheading": 7095,
      "Ġsquishy": 7096,
      "ĠThose": 7097,
      "Ġbows": 7098,
      "Ġpolitely": 7099,
      "Ġvisitor": 7100,
      "Ġcupcakes": 7101,
      "Ġchopped": 7102,
      "Ġcausing": 7103,
      "Ġexpress": 7104,
      "Ġlifts": 7105,
      "Steve": 7106,
      "illiam": 7107,
      "Ġthud": 7108,
      "years": 7109,
      "Ġcuddly": 7110,
      "Ġproper": 7111,
      "Ġsports": 7112,
      "Ġfreedom": 7113,
      "Ġsnowflakes": 7114,
      "Ġnoodles": 7115,
      "Ġbeehive": 7116,
      "Ġchosen": 7117,
      "aven": 7118,
      "bro": 7119,
      "cher": 7120,
      "ratul": 7121,
      "while": 7122,
      "Ġdaring": 7123,
      "inger": 7124,
      "Ġsofter": 7125,
      "str": 7126,
      "unched": 7127,
      "ently": 7128,
      "Ġshown": 7129,
      "Ġroars": 7130,
      "ongratul": 7131,
      "Ġwhose": 7132,
      "ĠFire": 7133,
      "Ġtwenty": 7134,
      "ĠSpidey": 7135,
      "ĠRain": 7136,
      "Ġwarmly": 7137,
      "Ġthroughout": 7138,
      "ĠwonÃ¢": 7139,
      "Ġdived": 7140,
      "ĠAlong": 7141,
      "Ġnervously": 7142,
      "Ġtwisting": 7143,
      "Ġdiamonds": 7144,
      "Ġtoaster": 7145,
      "Ġsniffs": 7146,
      "Ġsneezing": 7147,
      "Ġsurfboard": 7148,
      "Ġstacked": 7149,
      "Ġinsisting": 7150,
      "ĠAbi": 7151,
      "Ġpupils": 7152,
      "Ġflavors": 7153,
      "Ġrobber": 7154,
      "Ġcowboy": 7155,
      "Ġslammed": 7156,
      "Car": 7157,
      "Miss": 7158,
      "Sadly": 7159,
      "Woof": 7160,
      "cl": 7161,
      "mered": 7162,
      "Ġaim": 7163,
      "ido": 7164,
      "onies": 7165,
      "Ġinj": 7166,
      "utter": 7167,
      "ĠBo": 7168,
      "ĠBoun": 7169,
      "ĠJax": 7170,
      "Ġcharge": 7171,
      "Ġintrigued": 7172,
      "Ġovercome": 7173,
      "Ġpuff": 7174,
      "Ġexplorer": 7175,
      "Ġstopping": 7176,
      "Ġwrink": 7177,
      "ĠGemma": 7178,
      "Ġtables": 7179,
      "ĠKaren": 7180,
      "otten": 7181,
      "Ġbelongings": 7182,
      "Ġmailed": 7183,
      "Ġdriveway": 7184,
      "Ġignoring": 7185,
      "Ġdecorating": 7186,
      "Ġwhispers": 7187,
      "Ġtwisty": 7188,
      "Ġstreamers": 7189,
      "Ġdesigned": 7190,
      "Ġgrandson": 7191,
      "Ġstatues": 7192,
      "Ġperforming": 7193,
      "Ġlending": 7194,
      "Ġtwinkled": 7195,
      "Ġloops": 7196,
      "Ġwhispering": 7197,
      "Ġsuffered": 7198,
      "Ġlicking": 7199,
      "Ġsewed": 7200,
      "ĠSparky": 7201,
      "iki": 7202,
      "Ġgrandparents": 7203,
      "Blue": 7204,
      "Ġawoke": 7205,
      "Jerry": 7206,
      "Su": 7207,
      "cter": 7208,
      "upt": 7209,
      "yan": 7210,
      "Ġfant": 7211,
      "Ġdot": 7212,
      "Ġmate": 7213,
      "Ġponies": 7214,
      "Ġrotten": 7215,
      "Ġplayroom": 7216,
      "Ġshoo": 7217,
      "Ġroses": 7218,
      "Ġcoach": 7219,
      "Ġcosy": 7220,
      "Ġprob": 7221,
      "Ġgoodies": 7222,
      "Ġsled": 7223,
      "Ġbeautifully": 7224,
      "Ġdollars": 7225,
      "Ġunw": 7226,
      "Ġforests": 7227,
      "ĠRavi": 7228,
      "Ġbelts": 7229,
      "uffin": 7230,
      "Ġunderstands": 7231,
      "meal": 7232,
      "Ġjoining": 7233,
      "Ġfits": 7234,
      "Ġcalmly": 7235,
      "Ġleads": 7236,
      "ĠZero": 7237,
      "Ġswans": 7238,
      "Ġoatmeal": 7239,
      "Ġsurrendered": 7240,
      "Ġquarreling": 7241,
      "Ġnovels": 7242,
      "Ġresults": 7243,
      "Ġpunishment": 7244,
      "Ġtrembled": 7245,
      "Ġwider": 7246,
      "Ġreflection": 7247,
      "ĠSquirrel": 7248,
      "ĠSqueaky": 7249,
      "Ġanticip": 7250,
      "Ġscampered": 7251,
      "Ġfantastic": 7252,
      "Ġprobably": 7253,
      "Adam": 7254,
      "Surpr": 7255,
      "ael": 7256,
      "eel": 7257,
      "rup": 7258,
      "sm": 7259,
      "sers": 7260,
      "whe": 7261,
      "Ġtiss": 7262,
      "Ġtying": 7263,
      "Ġgap": 7264,
      "Ġnapping": 7265,
      "anwhile": 7266,
      "iment": 7267,
      "onse": 7268,
      "rier": 7269,
      "ĠBee": 7270,
      "Ġmanag": 7271,
      "ĠWally": 7272,
      "Ġchara": 7273,
      "ĠDr": 7274,
      "Ġslither": 7275,
      "Ġwaterfall": 7276,
      "Ġfins": 7277,
      "Ġcolder": 7278,
      "ichael": 7279,
      "Ġfoxes": 7280,
      "Ġshops": 7281,
      "ounced": 7282,
      "Ġresponse": 7283,
      "Ġpicnics": 7284,
      "Ġappreciated": 7285,
      "Ġconfl": 7286,
      "ĠJulia": 7287,
      "ĠChris": 7288,
      "Ġperformed": 7289,
      "rrr": 7290,
      "ĠBirdy": 7291,
      "Frank": 7292,
      "Ġrisks": 7293,
      "Ġforgiveness": 7294,
      "Ġconnected": 7295,
      "Ġmerma": 7296,
      "broken": 7297,
      "Ġcharacter": 7298,
      "Baby": 7299,
      "Jul": 7300,
      "Listen": 7301,
      "Very": 7302,
      "crow": 7303,
      "mates": 7304,
      "Ġais": 7305,
      "its": 7306,
      "Ġcertain": 7307,
      "ilted": 7308,
      "Ġgest": 7309,
      "ĠSk": 7310,
      "ĠSw": 7311,
      "cky": 7312,
      "child": 7313,
      "ĠMartha": 7314,
      "Ġaside": 7315,
      "Ġscored": 7316,
      "ĠWin": 7317,
      "ĠLove": 7318,
      "Ġposter": 7319,
      "Ġposit": 7320,
      "Ġtweet": 7321,
      "Ġhanding": 7322,
      "Ġgardener": 7323,
      "Ġconvin": 7324,
      "Ġrainy": 7325,
      "ĠRalph": 7326,
      "Ġelbow": 7327,
      "Ġcloudy": 7328,
      "ĠStan": 7329,
      "Ġpostman": 7330,
      "Ġsniffing": 7331,
      "ĠUntil": 7332,
      "Ġgrandchild": 7333,
      "Ġappreciation": 7334,
      "Ġscrewdri": 7335,
      "Tweetie": 7336,
      "Ġspills": 7337,
      "Ġseashells": 7338,
      "Ġannoyed": 7339,
      "Abigail": 7340,
      "ĠCrabby": 7341,
      "Ġwaddled": 7342,
      "Ġencouraging": 7343,
      "Ġsyrup": 7344,
      "Ġanticipation": 7345,
      "Ġscrewdriver": 7346,
      "Back": 7347,
      "Tilly": 7348,
      "ae": 7349,
      "but": 7350,
      "found": 7351,
      "oss": 7352,
      "Ġtar": 7353,
      "Ġtipped": 7354,
      "Ġwag": 7355,
      "rey": 7356,
      "Ġlent": 7357,
      "Ġni": 7358,
      "ana": 7359,
      "onna": 7360,
      "espite": 7361,
      "ooking": 7362,
      "Ġramp": 7363,
      "Ġweeds": 7364,
      "Ġshady": 7365,
      "Ġkings": 7366,
      "Ġreun": 7367,
      "ĠMo": 7368,
      "Ġjars": 7369,
      "ĠAny": 7370,
      "Ġexcept": 7371,
      "ighting": 7372,
      "Ġnodd": 7373,
      "Ġchanging": 7374,
      "Ġwatering": 7375,
      "Ġsmallest": 7376,
      "Ġsnort": 7377,
      "Ġbravest": 7378,
      "Ġcheers": 7379,
      "ĠPandy": 7380,
      "Ġsweetest": 7381,
      "Ġcraft": 7382,
      "Ġworrying": 7383,
      "Ġsails": 7384,
      "Ġbelieving": 7385,
      "Ġheartbroken": 7386,
      "Ġlaying": 7387,
      "Ġpops": 7388,
      "Ġbells": 7389,
      "Ġnecklaces": 7390,
      "Ġsuggestion": 7391,
      "Ġpreparing": 7392,
      "Ġpedaled": 7393,
      "Ġreversed": 7394,
      "Ġstudents": 7395,
      "Ġincreasing": 7396,
      "Ġresponsib": 7397,
      "Quick": 7398,
      "Ġsuffering": 7399,
      "ĠSplash": 7400,
      "Ġconversation": 7401,
      "Ġofficers": 7402,
      "Bet": 7403,
      "Beth": 7404,
      "Karen": 7405,
      "Mine": 7406,
      "father": 7407,
      "munk": 7408,
      "ollen": 7409,
      "ĠX": 7410,
      "Ġties": 7411,
      "Ġtumbled": 7412,
      "Ġgonna": 7413,
      "ambled": 7414,
      "Ġstumble": 7415,
      "storm": 7416,
      "Ġreapp": 7417,
      "Ġswollen": 7418,
      "ÅĵOf": 7419,
      "Ġconqu": 7420,
      "Ġblocked": 7421,
      "Ġbiting": 7422,
      "Ġnests": 7423,
      "Ġrespected": 7424,
      "Ġangels": 7425,
      "Ġpepperoni": 7426,
      "Ġbatteries": 7427,
      "Ġpermitted": 7428,
      "Ġzebras": 7429,
      "Ġmeowing": 7430,
      "Ġpuppet": 7431,
      "Ġgears": 7432,
      "Ġconcert": 7433,
      "Ġreassured": 7434,
      "Ġtrotted": 7435,
      "Bill": 7436,
      "Bunny": 7437,
      "Each": 7438,
      "Jamie": 7439,
      "Rob": 7440,
      "cie": 7441,
      "wise": 7442,
      "Ġtoss": 7443,
      "Ġheight": 7444,
      "ĠTuna": 7445,
      "ĠSal": 7446,
      "order": 7447,
      "Ġev": 7448,
      "Ġearn": 7449,
      "Ġund": 7450,
      "Ġrather": 7451,
      "Ġstall": 7452,
      "ĠthatÃ¢": 7453,
      "ĠMart": 7454,
      "Ġsmashed": 7455,
      "Ġanger": 7456,
      "Ġspook": 7457,
      "Ġmemb": 7458,
      "Ġnewfound": 7459,
      "Ġblond": 7460,
      "Ġthoughts": 7461,
      "Ġtapped": 7462,
      "Ġskunk": 7463,
      "Ġquilt": 7464,
      "ection": 7465,
      "Whenever": 7466,
      "Ġwrigg": 7467,
      "Ġtoward": 7468,
      "athy": 7469,
      "Ġfires": 7470,
      "Ġdrown": 7471,
      "Ġcrashing": 7472,
      "Ġpromises": 7473,
      "Ġcounts": 7474,
      "ĠTodd": 7475,
      "Ġvegg": 7476,
      "Ġpaintbrush": 7477,
      "Ġplanting": 7478,
      "Ġstreets": 7479,
      "Ġpays": 7480,
      "Ġscrambled": 7481,
      "ĠZip": 7482,
      "Ġsoapy": 7483,
      "Ġsuits": 7484,
      "ĠDavey": 7485,
      "Ġdiscoveries": 7486,
      "Ġspeeding": 7487,
      "uctor": 7488,
      "Ġpassports": 7489,
      "Anne": 7490,
      "amboo": 7491,
      "Ġdelayed": 7492,
      "Ġwiggly": 7493,
      "Ġuniforms": 7494,
      "Ġefforts": 7495,
      "Ġdamaged": 7496,
      "Ġfirmly": 7497,
      "ĠLouise": 7498,
      "Ġmermaid": 7499,
      "Ġspooky": 7500,
      "Ġmembers": 7501,
      "?!\"": 7502,
      "Out": 7503,
      "Rachel": 7504,
      "ms": 7505,
      "oey": 7506,
      "prin": 7507,
      "sie": 7508,
      "vas": 7509,
      "Ġwoof": 7510,
      "Ġhoo": 7511,
      "Ġpound": 7512,
      "Ġnuzz": 7513,
      "ances": 7514,
      "orter": 7515,
      "ĠHope": 7516,
      "amma": 7517,
      "Ġbeating": 7518,
      "Ġsoot": 7519,
      "ading": 7520,
      "ĠMuffin": 7521,
      "ugs": 7522,
      "Ġsped": 7523,
      "fus": 7524,
      "ĠAmanda": 7525,
      "romise": 7526,
      "usty": 7527,
      "ĠFuzz": 7528,
      "ĠFiona": 7529,
      "ĠFido": 7530,
      "Ġcleared": 7531,
      "ÅĵOkay": 7532,
      "Ġdangers": 7533,
      "Ġcleaner": 7534,
      "ĠGina": 7535,
      "Ġrains": 7536,
      "Ġhops": 7537,
      "Ġmonths": 7538,
      "Ġtablet": 7539,
      "Ġjudges": 7540,
      "Ġshaped": 7541,
      "Ġmints": 7542,
      "Ġbandages": 7543,
      "Ġpanicked": 7544,
      "Ġtidied": 7545,
      "Ġclearly": 7546,
      "Ġfills": 7547,
      "Ġaddress": 7548,
      "Ġfishes": 7549,
      "Ġcovering": 7550,
      "Ġmagnif": 7551,
      "Ġfrowning": 7552,
      "ivia": 7553,
      "Ġcuddles": 7554,
      "Ġsurfing": 7555,
      "Ġmillion": 7556,
      "Ġexercises": 7557,
      "Ġbreathing": 7558,
      "Ġstroke": 7559,
      "Ġpurrs": 7560,
      "Ġdiscussing": 7561,
      "Ġbrushing": 7562,
      "ĠMaddy": 7563,
      "ĠQuick": 7564,
      "Ġoppos": 7565,
      "Ġinspired": 7566,
      "Ġconductor": 7567,
      "steps": 7568,
      "Ġtissue": 7569,
      "Ġtarget": 7570,
      "Ġveggies": 7571,
      "Penny": 7572,
      "water": 7573,
      "Ġdep": 7574,
      "ening": 7575,
      "Ġnur": 7576,
      "Ġrout": 7577,
      "Ġsoaking": 7578,
      "Ġkittens": 7579,
      "Ġseals": 7580,
      "Ġcanvas": 7581,
      "Ġalien": 7582,
      "Ġtreated": 7583,
      "Ġthanking": 7584,
      "ĠFighting": 7585,
      "Ġtrans": 7586,
      "Ġuntie": 7587,
      "ĠCle": 7588,
      "asty": 7589,
      "ÅĵHey": 7590,
      "Ġdoorway": 7591,
      "ĠPaula": 7592,
      "ĠRock": 7593,
      "Ġnights": 7594,
      "ĠThatÃ¢": 7595,
      "Ġsmelling": 7596,
      "ĠKelly": 7597,
      "Ġsparks": 7598,
      "Ġsprout": 7599,
      "Ġpackages": 7600,
      "Ġdesper": 7601,
      "ails": 7602,
      "Ġpuzzled": 7603,
      "Ġfootsteps": 7604,
      "Ġtoolbox": 7605,
      "ĠAli": 7606,
      "ĠAlison": 7607,
      "Ġreminding": 7608,
      "Ġtidying": 7609,
      "Ġwisely": 7610,
      "Ġsqueezing": 7611,
      "ĠUp": 7612,
      "Ġtravels": 7613,
      "Ġgrandfather": 7614,
      "Ġpigeons": 7615,
      "Ġloading": 7616,
      "Ġartwork": 7617,
      "Ġmagazines": 7618,
      "Ġdisplayed": 7619,
      "Ġprevented": 7620,
      "Chloe": 7621,
      "Ġsqueak": 7622,
      "Ġadmiration": 7623,
      "Ġglobe": 7624,
      "ĠMaya": 7625,
      "Ġmaterial": 7626,
      "Ġexperienced": 7627,
      "Ġrefuse": 7628,
      "Ġoccasion": 7629,
      "eeling": 7630,
      "Ġconvinced": 7631,
      "Ġreunited": 7632,
      "Hannah": 7633,
      "bage": 7634,
      "cent": 7635,
      "mi": 7636,
      "pen": 7637,
      "Ġsou": 7638,
      "rew": 7639,
      "Ġcoug": 7640,
      "Ġheaven": 7641,
      "Ġmoo": 7642,
      "ĠTake": 7643,
      "arrow": 7644,
      "Ġger": 7645,
      "Ġnasty": 7646,
      "Ġsav": 7647,
      "ĠSleep": 7648,
      "ighing": 7649,
      "Ġrays": 7650,
      "Ġmommies": 7651,
      "ĠMichael": 7652,
      "Ġank": 7653,
      "Ġspy": 7654,
      "lph": 7655,
      "aret": 7656,
      "Ġgoodby": 7657,
      "Ġchin": 7658,
      "Ġchilly": 7659,
      "Ġblinking": 7660,
      "inkle": 7661,
      "Ġfond": 7662,
      "ÅĵWhere": 7663,
      "ĠPu": 7664,
      "Ġdressing": 7665,
      "Ġduckling": 7666,
      "Ġswimmer": 7667,
      "ordinary": 7668,
      "Ġdistract": 7669,
      "Ġdespite": 7670,
      "Ġimaginary": 7671,
      "Ġhonking": 7672,
      "Ġshrunk": 7673,
      "Ġchocolates": 7674,
      "Ġbanged": 7675,
      "Ġpleaded": 7676,
      "Ġsolving": 7677,
      "Ġtrusting": 7678,
      "Ġgarbage": 7679,
      "Ġcrowns": 7680,
      "Ġcamel": 7681,
      "Ġguessing": 7682,
      "Ġextraordinary": 7683,
      "Ġsending": 7684,
      "...\"": 7685,
      "Ġrotting": 7686,
      "Ġvehicles": 7687,
      "Ġsqueaked": 7688,
      "Ġsewing": 7689,
      "Ġaccomplished": 7690,
      "Ġswayed": 7691,
      "Ġsternly": 7692,
      "Clara": 7693,
      "ĠTessa": 7694,
      "Two": 7695,
      "Ġmunching": 7696,
      "Ġevil": 7697,
      "Ġopposite": 7698,
      "Ġgoodbyes": 7699,
      "Claire": 7700,
      "Dear": 7701,
      "Take": 7702,
      "fia": 7703,
      "gain": 7704,
      "hind": 7705,
      "vant": 7706,
      "vroom": 7707,
      "hew": 7708,
      "Ġbamboo": 7709,
      "isions": 7710,
      "idence": 7711,
      "ori": 7712,
      "ĠHallow": 7713,
      "Ġrin": 7714,
      "ĠIm": 7715,
      "Ġwithin": 7716,
      "ĠBri": 7717,
      "ĠBaa": 7718,
      "Ġdod": 7719,
      "Ġdoves": 7720,
      "Ġwhoo": 7721,
      "ĠMaisy": 7722,
      "Ġloc": 7723,
      "Ġspat": 7724,
      "Ġexch": 7725,
      "Ġknots": 7726,
      "Ġmanners": 7727,
      "Ġlapt": 7728,
      "Ġlasers": 7729,
      "Ġflipped": 7730,
      "ilda": 7731,
      "ÅĵBut": 7732,
      "Ġdisc": 7733,
      "ĠNora": 7734,
      "ĠDog": 7735,
      "airy": 7736,
      "uggy": 7737,
      "Ġcomforting": 7738,
      "screen": 7739,
      "Ġgenerosity": 7740,
      "Ġscrub": 7741,
      "Ġprayers": 7742,
      "ĠSnap": 7743,
      "Ġwealth": 7744,
      "Ġenviron": 7745,
      "ĠFinn": 7746,
      "ĠPepper": 7747,
      "Ġemerged": 7748,
      "Ġobeyed": 7749,
      "Ġcubes": 7750,
      "ĠMaddie": 7751,
      "Ġchipmunk": 7752,
      "Ġcustomers": 7753,
      "citedly": 7754,
      "Ġmasterp": 7755,
      "Ġresponded": 7756,
      "Ġnibbled": 7757,
      "Ġcocoon": 7758,
      "Ġgesture": 7759,
      "ĠHalloween": 7760,
      "Ġenvironment": 7761,
      "Any": 7762,
      "Watch": 7763,
      "eedy": 7764,
      "oc": 7765,
      "rink": 7766,
      "Ġhen": 7767,
      "Ġmood": 7768,
      "Ġmaker": 7769,
      "Ġnatur": 7770,
      "ĠSuper": 7771,
      "oration": 7772,
      "Ġinter": 7773,
      "Ġsheets": 7774,
      "ittered": 7775,
      "lyn": 7776,
      "icate": 7777,
      "Ġbride": 7778,
      "ĠWelcome": 7779,
      "Ġdecl": 7780,
      "Ġchanges": 7781,
      "Ġsunscreen": 7782,
      "Ġbrains": 7783,
      "Ġdonkey": 7784,
      "Ġsurprising": 7785,
      "acles": 7786,
      "Ġbusiness": 7787,
      "Ġmovements": 7788,
      "Ġmarve": 7789,
      "Ġvisits": 7790,
      "Ġgrows": 7791,
      "Ġcollap": 7792,
      "Ġafar": 7793,
      "Ġstorms": 7794,
      "Ġpinching": 7795,
      "Ġdigs": 7796,
      "Ġawful": 7797,
      "Always": 7798,
      "Ġunlo": 7799,
      "Ġshovels": 7800,
      "Ġconfidence": 7801,
      "Ġburying": 7802,
      "Ġpeeled": 7803,
      "Ġencouragement": 7804,
      "Ġpaddling": 7805,
      "Ġglittering": 7806,
      "Ġforgiving": 7807,
      "intment": 7808,
      "Ġtype": 7809,
      "Ġwrinkled": 7810,
      "Surprise": 7811,
      "Ġankle": 7812,
      "Ġlaptop": 7813,
      "Jess": 7814,
      "Rosie": 7815,
      "dress": 7816,
      "even": 7817,
      "ps": 7818,
      "we": 7819,
      "worm": 7820,
      "Ġting": 7821,
      "Ġwakes": 7822,
      "rect": 7823,
      "ĠTaking": 7824,
      "Ġgroom": 7825,
      "ider": 7826,
      "ats": 7827,
      "ĠSl": 7828,
      "ĠSimon": 7829,
      "anish": 7830,
      "immered": 7831,
      "Ġform": 7832,
      "elie": 7833,
      "rying": 7834,
      "artled": 7835,
      "ĠWilliam": 7836,
      "Ġwhoever": 7837,
      "Ġdecisions": 7838,
      "Ġflick": 7839,
      "Ġflip": 7840,
      "Ġwaters": 7841,
      "ipes": 7842,
      "ĠRyan": 7843,
      "Ġforgives": 7844,
      "issa": 7845,
      "Ġbits": 7846,
      "Ġhairdress": 7847,
      "boards": 7848,
      "Ġlessons": 7849,
      "Ġfloors": 7850,
      "Ġtighter": 7851,
      "Ġcompared": 7852,
      "ĠJennie": 7853,
      "Ġcupcake": 7854,
      "Ġjobs": 7855,
      "ĠOther": 7856,
      "Ġtroubles": 7857,
      "Ġpresented": 7858,
      "Ġmattered": 7859,
      "Ġrecorder": 7860,
      "Ġprick": 7861,
      "Ġsweep": 7862,
      "Ġpandas": 7863,
      "ĠSnowman": 7864,
      "Ġtires": 7865,
      "Ġrepeating": 7866,
      "Ġspells": 7867,
      "Ġlipstick": 7868,
      "Ġlanguages": 7869,
      "Ġfreezing": 7870,
      "Ġbothering": 7871,
      "Ġsnaps": 7872,
      "ĠOlivia": 7873,
      "ĠMeg": 7874,
      "Ġleapt": 7875,
      "Ġbruises": 7876,
      "Ġcorrect": 7877,
      "Ġnearest": 7878,
      "Ġsadder": 7879,
      "Ġthorns": 7880,
      "Ġconflict": 7881,
      "Ġnodding": 7882,
      "Ġtransf": 7883,
      "Ġgerms": 7884,
      "Ġnatural": 7885,
      "Ġhairdresser": 7886,
      "Buddy": 7887,
      "Buzz": 7888,
      "Boys": 7889,
      "Get": 7890,
      "Jessie": 7891,
      "Pl": 7892,
      "evin": 7893,
      "lt": 7894,
      "line": 7895,
      "pes": 7896,
      "what": 7897,
      "Ġsill": 7898,
      "Ġsigning": 7899,
      "Ġtossed": 7900,
      "Ġbou": 7901,
      "ouched": 7902,
      "Ġdump": 7903,
      "Ġpins": 7904,
      "lets": 7905,
      "Ġsteth": 7906,
      "Ġshall": 7907,
      "Ġrely": 7908,
      "Ġloses": 7909,
      "ĠgirlÃ¢": 7910,
      "Ġclues": 7911,
      "Ġalthough": 7912,
      "Ġscent": 7913,
      "Ġscores": 7914,
      "âĤ¬,": 7915,
      "ĠLooking": 7916,
      "Ġpose": 7917,
      "Ġexploration": 7918,
      "ÅĵMaybe": 7919,
      "ÅĵSee": 7920,
      "Ġwinding": 7921,
      "ĠGre": 7922,
      "acle": 7923,
      "Ġclosing": 7924,
      "Ġleaking": 7925,
      "Ġcracks": 7926,
      "Ġparted": 7927,
      "Ġdripping": 7928,
      "Ġsnowy": 7929,
      "spe": 7930,
      "Ġdesigning": 7931,
      "Ġsurv": 7932,
      "Ġself": 7933,
      "ĠBruce": 7934,
      "ĠBecky": 7935,
      "Ġadds": 7936,
      "Ġjogger": 7937,
      "Ġhamster": 7938,
      "Ġfrowns": 7939,
      "Ġsweat": 7940,
      "Ġcombed": 7941,
      "Ġtaped": 7942,
      "Ġcomputers": 7943,
      "Ġwindowsill": 7944,
      "Ġunpacking": 7945,
      "Ġhooks": 7946,
      "Ġtearing": 7947,
      "ĠPatty": 7948,
      "Ġobserving": 7949,
      "Ġexplains": 7950,
      "Ġapplause": 7951,
      "Ġluckily": 7952,
      "Ġburger": 7953,
      "Ġpurr": 7954,
      "Ġspits": 7955,
      "ĠVroom": 7956,
      "Ġoutfits": 7957,
      "Ġseagulls": 7958,
      "Ġtextures": 7959,
      "ĠNana": 7960,
      "Ġcottage": 7961,
      "Ġinstruments": 7962,
      "Ġexploded": 7963,
      "Brown": 7964,
      "ĠSkip": 7965,
      "Ġbouqu": 7966,
      "Ġstethos": 7967,
      "Bang": 7968,
      "Joy": 7969,
      "Since": 7970,
      "belt": 7971,
      "bank": 7972,
      "baby": 7973,
      "jack": 7974,
      "ker": 7975,
      "Ġcongratul": 7976,
      "inging": 7977,
      "Ġgall": 7978,
      "Ġyel": 7979,
      "Ġrowed": 7980,
      "ĠBra": 7981,
      "ĠBecause": 7982,
      "Ġlies": 7983,
      "Ġshallow": 7984,
      "Ġshorter": 7985,
      "Ġscri": 7986,
      "Ġfailed": 7987,
      "ĠYouÃ¢": 7988,
      "Ġcarries": 7989,
      "ĠLia": 7990,
      "Ġcares": 7991,
      "ĠDespite": 7992,
      "antha": 7993,
      "bbling": 7994,
      "anda": 7995,
      "Ġstrum": 7996,
      "Ġsnapping": 7997,
      "ortunately": 7998,
      "ĠJoanna": 7999,
      "aste": 8000,
      "ÅĵThe": 8001,
      "ÅĵWho": 8002,
      "bee": 8003,
      "LetÃ¢": 8004,
      "Ġcompete": 8005,
      "ĠKaty": 8006,
      "Ġprod": 8007,
      "Ġcaw": 8008,
      "Ġgiggles": 8009,
      "ĠAlbert": 8010,
      "Ġsprays": 8011,
      "Ġrobots": 8012,
      "Ġstretches": 8013,
      "Ġ''": 8014,
      "Ġclassmates": 8015,
      "Ġwiser": 8016,
      "ĠZoey": 8017,
      "Meanwhile": 8018,
      "Ġapologised": 8019,
      "Ġscarecrow": 8020,
      "Ġsweaty": 8021,
      "Ġbeetles": 8022,
      "Ġmember": 8023,
      "Ġerase": 8024,
      "Ġstamped": 8025,
      "Ġscooters": 8026,
      "Ġfilms": 8027,
      "Ġbeeped": 8028,
      "ĠRoger": 8029,
      "Ġtubes": 8030,
      "Ġtraveling": 8031,
      "Ġlumberjack": 8032,
      "Ġbothered": 8033,
      "Ġsimply": 8034,
      "Ġrepeats": 8035,
      "Ġsirens": 8036,
      "Ġfocus": 8037,
      "asmine": 8038,
      "Ġcotton": 8039,
      "ĠLibby": 8040,
      "Ġastronauts": 8041,
      "Ġaisle": 8042,
      "Ġmasterpiece": 8043,
      "Ġdeclared": 8044,
      "Ġbouquet": 8045,
      "Liz": 8046,
      "Pretty": 8047,
      "Tony": 8048,
      "emy": 8049,
      "eens": 8050,
      "ibbit": 8051,
      "ris": 8052,
      "val": 8053,
      "well": 8054,
      "Â¦": 8055,
      "Ġactor": 8056,
      "Ġsipped": 8057,
      "Ġbound": 8058,
      "Ġdip": 8059,
      "erk": 8060,
      "ilities": 8061,
      "ĠSay": 8062,
      "Ġforts": 8063,
      "Ġshin": 8064,
      "ĠĊĊ": 8065,
      "ument": 8066,
      "âĤ¬Â¦": 8067,
      "ĠDuck": 8068,
      "ĠDory": 8069,
      "uddles": 8070,
      "anted": 8071,
      "Ġqueens": 8072,
      "Ġenemy": 8073,
      "Ġjoked": 8074,
      "Ġjoins": 8075,
      "ortun": 8076,
      "ĠCurious": 8077,
      "ÅĵGood": 8078,
      "Ġstored": 8079,
      "ĠGinger": 8080,
      "ĠSpeedy": 8081,
      "Ġbrightest": 8082,
      "Ġsquir": 8083,
      "Ġsquished": 8084,
      "Ġbuses": 8085,
      "Ġcrouched": 8086,
      "Ġpapa": 8087,
      "Ġtasting": 8088,
      "Ġcompan": 8089,
      "ĠFlora": 8090,
      "Ġcafe": 8091,
      "Ġwhistles": 8092,
      "Ġpurpose": 8093,
      "Ġbounces": 8094,
      "barrow": 8095,
      "Ġseatbelt": 8096,
      "Ġpizzas": 8097,
      "ĠStar": 8098,
      "Ġcroaked": 8099,
      "Ġwheelbarrow": 8100,
      "Ġrelaxing": 8101,
      "Ġhunting": 8102,
      "Ġaware": 8103,
      "Ġhoops": 8104,
      "Ġgrandd": 8105,
      "Ġdestroying": 8106,
      "Ġbracelets": 8107,
      "Ġcrocodiles": 8108,
      "Ġdisturbing": 8109,
      "ĠSeeing": 8110,
      "ĠDaniel": 8111,
      "Ġactivity": 8112,
      "ĠFrankie": 8113,
      "Ġexpecting": 8114,
      "ĠJanie": 8115,
      "Ġtemptation": 8116,
      "Ġopportun": 8117,
      "Ġsteering": 8118,
      "anne": 8119,
      "Ġcustomer": 8120,
      "ĠHootie": 8121,
      "Ġflashing": 8122,
      "Maddy": 8123,
      "Ġunwra": 8124,
      "Ġdrowned": 8125,
      "Ġnuzzled": 8126,
      "Brownie": 8127,
      "Ġstethoscope": 8128,
      "Ġcongratulated": 8129,
      "Ġyelped": 8130,
      "Abby": 8131,
      "Co": 8132,
      "Cindy": 8133,
      "Honey": 8134,
      "Lena": 8135,
      "Mira": 8136,
      "Too": 8137,
      "da": 8138,
      "flowers": 8139,
      "lers": 8140,
      "olph": 8141,
      "po": 8142,
      "py": 8143,
      "rily": 8144,
      "ĠOkay": 8145,
      "Ġtilted": 8146,
      "Ġsens": 8147,
      "Ġtheat": 8148,
      "Ġbless": 8149,
      "ita": 8150,
      "Ġdarl": 8151,
      "Ġwasting": 8152,
      "ĠTry": 8153,
      "ili": 8154,
      "ĠSadie": 8155,
      "ammy": 8156,
      "Ġbea": 8157,
      "Ġplayd": 8158,
      "ĠBuggy": 8159,
      "Ġshave": 8160,
      "Ġshimmering": 8161,
      "Ġbond": 8162,
      "icle": 8163,
      "icia": 8164,
      "Ġblown": 8165,
      "Ġtapping": 8166,
      "Ġuntied": 8167,
      "ĠJosie": 8168,
      "Ġchecks": 8169,
      "ctric": 8170,
      "Ġraising": 8171,
      "ÅĵSure": 8172,
      "sol": 8173,
      "ĠNice": 8174,
      "Ġstepping": 8175,
      "ulars": 8176,
      "Ġvisitors": 8177,
      "Ġpetting": 8178,
      "ugging": 8179,
      "Ġriverbank": 8180,
      "Ġwinking": 8181,
      "Ġcourt": 8182,
      "Ġnecks": 8183,
      "Ġcheerfully": 8184,
      "ÅĵIf": 8185,
      "ĠGold": 8186,
      "ĠOnly": 8187,
      "Ġbattle": 8188,
      "Ġbreaths": 8189,
      "Ġchecking": 8190,
      "Ġturtles": 8191,
      "Ġfigures": 8192,
      "Ġterrified": 8193,
      "Ġscares": 8194,
      "Ġlizards": 8195,
      "Ġrats": 8196,
      "Ġknocking": 8197,
      "Ġtraps": 8198,
      "udolph": 8199,
      "Ġbinoc": 8200,
      "Ġvests": 8201,
      "Ġshorts": 8202,
      "Ġapplauding": 8203,
      "Ġfleas": 8204,
      "Ġthumbs": 8205,
      "Ġflaps": 8206,
      "Ġinchworm": 8207,
      "ĠTwinkle": 8208,
      "ĠAnother": 8209,
      "ĠPlaying": 8210,
      "ĠNancy": 8211,
      "Ġembarrassing": 8212,
      "ĠPrince": 8213,
      "Ġnibble": 8214,
      "Ġconquered": 8215,
      "Ġnurses": 8216,
      "ĠPuppy": 8217,
      "Ġprickly": 8218,
      "Ġcompanion": 8219,
      "Ġtheatre": 8220,
      "Ġdarlings": 8221,
      "Ġbinoculars": 8222,
      "Aunt": 8223,
      "Poppy": 8224,
      "Sophia": 8225,
      "ew": 8226,
      "ieter": 8227,
      "jest": 8228,
      "lied": 8229,
      "Ġill": 8230,
      "Ġbas": 8231,
      "Ġcuc": 8232,
      "isdom": 8233,
      "Ġgaz": 8234,
      "atitude": 8235,
      "ani": 8236,
      "Ġrumbling": 8237,
      "rick": 8238,
      "ĠmomÃ¢": 8239,
      "Ġwhales": 8240,
      "ĠMag": 8241,
      "ĠMamma": 8242,
      "Ġboards": 8243,
      "aint": 8244,
      "Ġclerk": 8245,
      "getic": 8246,
      "Ġfaith": 8247,
      "Ġtreas": 8248,
      "Ġchili": 8249,
      "ĠEver": 8250,
      "Ġswat": 8251,
      "Ġbloss": 8252,
      "ĠDoug": 8253,
      "Ġquieter": 8254,
      "empt": 8255,
      "Ġends": 8256,
      "Ġgratitude": 8257,
      "ĠCD": 8258,
      "Ġglittered": 8259,
      "ĠPet": 8260,
      "ĠPretty": 8261,
      "Ġmeaning": 8262,
      "ĠRay": 8263,
      "ĠRos": 8264,
      "ĠRudolph": 8265,
      "Ġsquaw": 8266,
      "Ġsingers": 8267,
      "Ġsets": 8268,
      "Ġslowed": 8269,
      "ĠKevin": 8270,
      "Ġjoyfully": 8271,
      "Ġemb": 8272,
      "Ġattempt": 8273,
      "earl": 8274,
      "Ġtownspe": 8275,
      "Ġteachers": 8276,
      "Ġactive": 8277,
      "Stay": 8278,
      "Everyday": 8279,
      "Ġanswering": 8280,
      "Ġhumming": 8281,
      "Ġwhisk": 8282,
      "ippers": 8283,
      "Ġorders": 8284,
      "Ġcrawls": 8285,
      "Ġgoats": 8286,
      "Ġrescuing": 8287,
      "Ġtoothbrush": 8288,
      "Ġmischie": 8289,
      "Ġgrandbaby": 8290,
      "Ġquestioned": 8291,
      "Ġotters": 8292,
      "ĠFinny": 8293,
      "ĠTrust": 8294,
      "ĠPeggy": 8295,
      "Ġstudent": 8296,
      "Ġfloats": 8297,
      "ĠIsn": 8298,
      "Ġcalmer": 8299,
      "ĠJonny": 8300,
      "Ġwounds": 8301,
      "ĠBirdie": 8302,
      "Freddy": 8303,
      "Ġrobbers": 8304,
      "Ġbeaming": 8305,
      "ĠQuackers": 8306,
      "Ġmatey": 8307,
      "Ġtownspeople": 8308,
      "Ġmischievous": 8309,
      "Mon": 8310,
      "Red": 8311,
      "bu": 8312,
      "oor": 8313,
      "ping": 8314,
      "Ġtips": 8315,
      "Ġbitten": 8316,
      "Ġwaking": 8317,
      "Ġpouch": 8318,
      "omb": 8319,
      "Ġgrip": 8320,
      "enn": 8321,
      "Ġhab": 8322,
      "anie": 8323,
      "onnie": 8324,
      "oto": 8325,
      "Ġriddle": 8326,
      "Ġweighing": 8327,
      "ĠBang": 8328,
      "endant": 8329,
      "Ġwhimp": 8330,
      "ĠMan": 8331,
      "Ġlevers": 8332,
      "Ġflashed": 8333,
      "ĠDin": 8334,
      "ĠDot": 8335,
      "apot": 8336,
      "Ġposes": 8337,
      "Ġpeep": 8338,
      "Ġskies": 8339,
      "Ġoverhead": 8340,
      "Ġbubbly": 8341,
      "Ġsnug": 8342,
      "Ġgrumbled": 8343,
      "ĠCro": 8344,
      "Ġgardens": 8345,
      "Ġteapot": 8346,
      "Ġdoorbell": 8347,
      "Ġunfortunately": 8348,
      "Ġbluebird": 8349,
      "ĠSpanish": 8350,
      "ĠRiley": 8351,
      "Ġsandy": 8352,
      "Ġmesses": 8353,
      "Ġmessages": 8354,
      "Jacky": 8355,
      "Ġpolar": 8356,
      "Ġelectric": 8357,
      "Ġwelcoming": 8358,
      "Ġexpert": 8359,
      "Ġreturning": 8360,
      "Ġzooms": 8361,
      "Ġsupplied": 8362,
      "Ġreminds": 8363,
      "Ġburns": 8364,
      "Ġdecoration": 8365,
      "ĠZee": 8366,
      "Ġapology": 8367,
      "Ġawhile": 8368,
      "keepers": 8369,
      "Ġargument": 8370,
      "Ġsqueezes": 8371,
      "undred": 8372,
      "Ġsupported": 8373,
      "Ġkayaking": 8374,
      "Ġscolds": 8375,
      "Ġenergetic": 8376,
      "ĠPatches": 8377,
      "Ġstrokes": 8378,
      "Ġsqueaky": 8379,
      "Ġmosquitoes": 8380,
      "Ġfascinating": 8381,
      "Ġspilling": 8382,
      "Robbie": 8383,
      "etchup": 8384,
      "Ġclicked": 8385,
      "Ġswaying": 8386,
      "Ġcowboys": 8387,
      "ĠAuntie": 8388,
      "Ġcommunicate": 8389,
      "Ġexpression": 8390,
      "Ġmanager": 8391,
      "Ġsoothing": 8392,
      "Ġdiscou": 8393,
      "Ġtreasured": 8394,
      "Gina": 8395,
      "Mat": 8396,
      "Nice": 8397,
      "car": 8398,
      "please": 8399,
      "rough": 8400,
      "uice": 8401,
      "vince": 8402,
      "ware": 8403,
      "Ġwig": 8404,
      "Ġbuddy": 8405,
      "Ġhood": 8406,
      "Ġhike": 8407,
      "Ġwaded": 8408,
      "ĠTurt": 8409,
      "ĠTerry": 8410,
      "Ġnapped": 8411,
      "aning": 8412,
      "orking": 8413,
      "ormed": 8414,
      "lle": 8415,
      "llas": 8416,
      "Ġinvent": 8417,
      "Ġforce": 8418,
      "Ġformed": 8419,
      "ended": 8420,
      "Ġketchup": 8421,
      "Ġrewards": 8422,
      "ĠMother": 8423,
      "Ġashes": 8424,
      "Ġjing": 8425,
      "Ġclue": 8426,
      "ĠwhatÃ¢": 8427,
      "ĠLion": 8428,
      "ĠLots": 8429,
      "ĠEric": 8430,
      "ĠMomma": 8431,
      "emon": 8432,
      "Ġflowing": 8433,
      "ĠCla": 8434,
      "Yesterday": 8435,
      "Ġcheated": 8436,
      "Ġglisten": 8437,
      "Ġgliding": 8438,
      "ÅĵPlease": 8439,
      "Ġfinishes": 8440,
      "Ġconcent": 8441,
      "Ġconvince": 8442,
      "Ġdiso": 8443,
      "Josh": 8444,
      "Ġbaa": 8445,
      "Ġinstantly": 8446,
      "balls": 8447,
      "Ġpreschool": 8448,
      "Goodnight": 8449,
      "Ġwildflowers": 8450,
      "Ġminds": 8451,
      "Ġpleas": 8452,
      "Ġstirs": 8453,
      "Ġtesting": 8454,
      "Beep": 8455,
      "ĠBehind": 8456,
      "Ġtickling": 8457,
      "Ġteams": 8458,
      "Ġcheckout": 8459,
      "ĠFreddie": 8460,
      "Ġcheaper": 8461,
      "Ġlabels": 8462,
      "udged": 8463,
      "Ġumbrellas": 8464,
      "Ġimproving": 8465,
      "ĠPeep": 8466,
      "Ġscurrying": 8467,
      "Ġpedaling": 8468,
      "Ġannounced": 8469,
      "Ġparticularly": 8470,
      "Ġchoosing": 8471,
      "Ġannoying": 8472,
      "Ġyumm": 8473,
      "ĠMonkey": 8474,
      "ĠAshley": 8475,
      "Ġresponsibility": 8476,
      "Betty": 8477,
      "Ġroutine": 8478,
      "Ġgazing": 8479,
      "Ġembra": 8480,
      "Ġdiscouraged": 8481,
      "Ġconcentr": 8482,
      "Deal": 8483,
      "Hop": 8484,
      "Lucky": 8485,
      "Lizzy": 8486,
      "Ol": 8487,
      "Put": 8488,
      "Ralph": 8489,
      "Snow": 8490,
      "Zoe": 8491,
      "cuit": 8492,
      "fly": 8493,
      "five": 8494,
      "rite": 8495,
      "rupt": 8496,
      "ulp": 8497,
      "xophone": 8498,
      "Ãĥ": 8499,
      "Ġbis": 8500,
      "Ġfet": 8501,
      "Ġfade": 8502,
      "Ġlim": 8503,
      "Ġlump": 8504,
      "Ġcages": 8505,
      "ĠTiger": 8506,
      "ĠToto": 8507,
      "Ġodd": 8508,
      "Ġsaxophone": 8509,
      "ĠSummer": 8510,
      "ĠHold": 8511,
      "ĠIzzy": 8512,
      "elve": 8513,
      "elope": 8514,
      "Ġwhined": 8515,
      "Ġwhipped": 8516,
      "Ġkit": 8517,
      "ĠMin": 8518,
      "Ġsmelt": 8519,
      "ĠAr": 8520,
      "hings": 8521,
      "ĠJelly": 8522,
      "Ġclut": 8523,
      "arefully": 8524,
      "Ġsculp": 8525,
      "Ġroast": 8526,
      "Ġsometime": 8527,
      "Ġbirdhouse": 8528,
      "agine": 8529,
      "ift": 8530,
      "ĠLy": 8531,
      "Ġchill": 8532,
      "Ġswallow": 8533,
      "Ġswitched": 8534,
      "ĠDra": 8535,
      "oured": 8536,
      "Ġoverwhe": 8537,
      "Thomas": 8538,
      "Ġhardest": 8539,
      "Ġrocky": 8540,
      "Ġcons": 8541,
      "ĠPen": 8542,
      "ĠPearl": 8543,
      "Ġunco": 8544,
      "Ġwrit": 8545,
      "Ġmajest": 8546,
      "Ġdev": 8547,
      "Ġdears": 8548,
      "ĠRight": 8549,
      "Ġcris": 8550,
      "Ġtricycle": 8551,
      "Ġbowing": 8552,
      "asha": 8553,
      "Ġguide": 8554,
      "Ġguards": 8555,
      "Ġdryer": 8556,
      "Ġdrying": 8557,
      "ĠOink": 8558,
      "izza": 8559,
      "Ġtunes": 8560,
      "Everything": 8561,
      "ĠStella": 8562,
      "Ġcooper": 8563,
      "Ġships": 8564,
      "Ġcherish": 8565,
      "Ġharmony": 8566,
      "Alright": 8567,
      "Ġcops": 8568,
      "Ġlowered": 8569,
      "Ġscratching": 8570,
      "Ġtorto": 8571,
      "Ġmelody": 8572,
      "ĠPatch": 8573,
      "Ġquarre": 8574,
      "Ġburnt": 8575,
      "Ġsprinkle": 8576,
      "Ġoffering": 8577,
      "Ġairplanes": 8578,
      "ĠReady": 8579,
      "ibly": 8580,
      "Ġappearance": 8581,
      "Ġcontainer": 8582,
      "Ġhonks": 8583,
      "ĠElsie": 8584,
      "Ġgasps": 8585,
      "Ġinstrument": 8586,
      "Ġdetails": 8587,
      "Ġjuggling": 8588,
      "Ġslithered": 8589,
      "Ġcharacters": 8590,
      "Ġblonde": 8591,
      "elieve": 8592,
      "Ġsurvive": 8593,
      "Ġgallop": 8594,
      "Ġgranddaughter": 8595,
      "Ġbiscuit": 8596,
      "Ġsculpture": 8597,
      "Ġoverwhel": 8598,
      "Arrr": 8599,
      "Bu": 8600,
      "Big": 8601,
      "Feeling": 8602,
      "Got": 8603,
      "Never": 8604,
      "lo": 8605,
      "lor": 8606,
      "off": 8607,
      "Ġouch": 8608,
      "Ġicky": 8609,
      "rest": 8610,
      "Ġmunched": 8611,
      "Ġpuck": 8612,
      "Ġpipes": 8613,
      "ĠTy": 8614,
      "ĠTin": 8615,
      "ative": 8616,
      "ĠSil": 8617,
      "Ġplumber": 8618,
      "sty": 8619,
      "stantly": 8620,
      "Ġrebu": 8621,
      "ĠMoo": 8622,
      "ĠAng": 8623,
      "ics": 8624,
      "Ġknit": 8625,
      "ĠJet": 8626,
      "icking": 8627,
      "ĠWas": 8628,
      "Ġprank": 8629,
      "elle": 8630,
      "ooks": 8631,
      "Ġblushed": 8632,
      "Ġblades": 8633,
      "ĠDe": 8634,
      "aps": 8635,
      "Ġhoot": 8636,
      "Ġpeas": 8637,
      "Ġslipping": 8638,
      "Ġslapping": 8639,
      "Ġbund": 8640,
      "ĠSofia": 8641,
      "Ġglared": 8642,
      "Ġunderwater": 8643,
      "Ġcleans": 8644,
      "ĠPaw": 8645,
      "Ġrealizes": 8646,
      "Ġunable": 8647,
      "ĠGabby": 8648,
      "Ġsurely": 8649,
      "ĠRoo": 8650,
      "Ġsquinted": 8651,
      "Ġdifferently": 8652,
      "Ġfloppy": 8653,
      "Ġsweetly": 8654,
      "iggle": 8655,
      "Ġbuckled": 8656,
      "Ġbenches": 8657,
      "Ġinvites": 8658,
      "Ġpatients": 8659,
      "ĠOak": 8660,
      "ĠOuch": 8661,
      "Ġfeathered": 8662,
      "Ġfootprin": 8663,
      "Ġpasses": 8664,
      "Ġservant": 8665,
      "ĠStill": 8666,
      "ĠDonÃ¢": 8667,
      "ĠBea": 8668,
      "Ġchews": 8669,
      "Ġmiracle": 8670,
      "Ġsharks": 8671,
      "Ġzips": 8672,
      "ĠAlexa": 8673,
      "Ġsupporting": 8674,
      "Ġmayor": 8675,
      "Ġcrystals": 8676,
      "Ġbackpacks": 8677,
      "Ġhaircuts": 8678,
      "Ġunlocking": 8679,
      "Ġpressing": 8680,
      "Choo": 8681,
      "Ġmeatballs": 8682,
      "Quack": 8683,
      "ĠCatty": 8684,
      "Ġopinions": 8685,
      "Mikey": 8686,
      "ĠJonathan": 8687,
      "ĠOutside": 8688,
      "Ġattacked": 8689,
      "ĠSmokey": 8690,
      "Ġpossess": 8691,
      "Ġdefeated": 8692,
      "Ġpositive": 8693,
      "Ġwriggled": 8694,
      "Ġdodged": 8695,
      "Ġcollapsed": 8696,
      "Ġcorrectly": 8697,
      "Ġpeeped": 8698,
      "Ġglistening": 8699,
      "Ġdisobey": 8700,
      "Ġwriter": 8701,
      ",'": 8702,
      "Gre": 8703,
      "Gabby": 8704,
      "Jacob": 8705,
      "Kayla": 8706,
      "Mabel": 8707,
      "Papa": 8708,
      "abr": 8709,
      "ders": 8710,
      "just": 8711,
      "mie": 8712,
      "Ġ5": 8713,
      "Ġtum": 8714,
      "nded": 8715,
      "Ġtopp": 8716,
      "Ġbomb": 8717,
      "Ġhundred": 8718,
      "Ġlar": 8719,
      "erg": 8720,
      "Ġwashes": 8721,
      "ĠTime": 8722,
      "Ġhaven": 8723,
      "Ġthump": 8724,
      "ĠHoney": 8725,
      "Ġinches": 8726,
      "Ġroo": 8727,
      "aming": 8728,
      "Ġbeast": 8729,
      "chy": 8730,
      "Ġshines": 8731,
      "Ġnoticing": 8732,
      "Ġwhine": 8733,
      "ĠMine": 8734,
      "Ġspare": 8735,
      "ĠJason": 8736,
      "Ġbacks": 8737,
      "Ġfunn": 8738,
      "Ġroamed": 8739,
      "ĠWoo": 8740,
      "ĠWisdom": 8741,
      "Ġworst": 8742,
      "ddie": 8743,
      "Ġparks": 8744,
      "ĠLenny": 8745,
      "Ġblob": 8746,
      "uster": 8747,
      "Ġsleds": 8748,
      "Ġfoam": 8749,
      "ĠJackÃ¢": 8750,
      "Ġglided": 8751,
      "Ġglimmering": 8752,
      "Ġracer": 8753,
      "ÅĵHow": 8754,
      "Ġbadger": 8755,
      "ĠPink": 8756,
      "ĠPup": 8757,
      "ĠRuth": 8758,
      "Ġstores": 8759,
      "Ġcrops": 8760,
      "ĠDove": 8761,
      "shadow": 8762,
      "Ġstew": 8763,
      "Ġhotter": 8764,
      "Ġcountries": 8765,
      "ĠGrand": 8766,
      "angle": 8767,
      "idents": 8768,
      "Ġsprang": 8769,
      "Ġsmoking": 8770,
      "Ġpractised": 8771,
      "Ġzookeepers": 8772,
      "Ġprotection": 8773,
      "Ġserving": 8774,
      "Ġharvest": 8775,
      "Ġmeadows": 8776,
      "Ġpostc": 8777,
      "Emmy": 8778,
      "Ġguarding": 8779,
      "Ġcurl": 8780,
      "faction": 8781,
      "Ġengines": 8782,
      "Ġcompliment": 8783,
      "Ġexercising": 8784,
      "aitlyn": 8785,
      "Ġpoisonous": 8786,
      "ccidents": 8787,
      "ĠVery": 8788,
      "Ġsatisfaction": 8789,
      "ĠMegan": 8790,
      "ĠJean": 8791,
      "Ġrevealing": 8792,
      "Ġbehaviour": 8793,
      "annon": 8794,
      "ĠPoor": 8795,
      "Which": 8796,
      "Someone": 8797,
      "Ġscenery": 8798,
      "Ġinju": 8799,
      "Suzy": 8800,
      "Ġcrafts": 8801,
      "Ġpounds": 8802,
      "ĠBrian": 8803,
      "Ġlocal": 8804,
      "Ġopportunity": 8805,
      "Ġbeaver": 8806,
      "Ġelectricity": 8807,
      "ĠClaus": 8808,
      "Ġoverwhelmed": 8809,
      "abrina": 8810,
      "Ġtummies": 8811,
      "!'.": 8812,
      "Curious": 8813,
      "David": 8814,
      "Fro": 8815,
      "Hold": 8816,
      "Hmm": 8817,
      "Im": 8818,
      "Moo": 8819,
      "Nick": 8820,
      "Sc": 8821,
      "Zoom": 8822,
      "aving": 8823,
      "gar": 8824,
      "oard": 8825,
      "pr": 8826,
      "ww": 8827,
      "Ġicing": 8828,
      "ĠYum": 8829,
      "Ġborn": 8830,
      "rent": 8831,
      "Ġfaint": 8832,
      "Ġlull": 8833,
      "Ġdou": 8834,
      "Ġdashed": 8835,
      "ering": 8836,
      "Ġheels": 8837,
      "ĠTe": 8838,
      "ĠTre": 8839,
      "aron": 8840,
      "iliar": 8841,
      "Ġgorge": 8842,
      "Ġnarrow": 8843,
      "ĠSweet": 8844,
      "Ġthie": 8845,
      "lest": 8846,
      "lephant": 8847,
      "ĠHar": 8848,
      "ĠHello": 8849,
      "igger": 8850,
      "Ġripp": 8851,
      "amiliar": 8852,
      "Ġstalk": 8853,
      "ppies": 8854,
      "stand": 8855,
      "ĠweÃ¢": 8856,
      "ĠBad": 8857,
      "Ġshattered": 8858,
      "Ġwhizz": 8859,
      "Ġkilled": 8860,
      "ĠAna": 8861,
      "ĠAgain": 8862,
      "ĠButt": 8863,
      "Ġgoodness": 8864,
      "ĠLand": 8865,
      "ĠDeal": 8866,
      "Ġability": 8867,
      "Ġaboard": 8868,
      "Ġhollow": 8869,
      "Ġhoses": 8870,
      "Ġpeac": 8871,
      "Ġtraded": 8872,
      "Ġtrigger": 8873,
      "Ġmoat": 8874,
      "Ġcheat": 8875,
      "ÅĵOk": 8876,
      "ĠPick": 8877,
      "Ġunless": 8878,
      "Ġthrill": 8879,
      "ĠGoose": 8880,
      "Ġfishy": 8881,
      "ĠRani": 8882,
      "Ġamused": 8883,
      "Ġsweeter": 8884,
      "ship": 8885,
      "Ġsleeps": 8886,
      "rench": 8887,
      "Ġclaw": 8888,
      "Ġmovement": 8889,
      "Ġhunger": 8890,
      "Ġcompromise": 8891,
      "Ġcupboards": 8892,
      "ounce": 8893,
      "Ġpresence": 8894,
      "Ġpills": 8895,
      "Ġshrank": 8896,
      "Ġhummed": 8897,
      "ĠStartled": 8898,
      "Ġcoolest": 8899,
      "Ġbats": 8900,
      "Ġhonesty": 8901,
      "Ġpriv": 8902,
      "Ġstuffing": 8903,
      "Ġtickles": 8904,
      "Ġtentacles": 8905,
      "Although": 8906,
      "Ġbullies": 8907,
      "Ġcuddling": 8908,
      "Ġpantry": 8909,
      "Ġdesks": 8910,
      "Ġcurrent": 8911,
      "Ġspringtime": 8912,
      "Ġmiller": 8913,
      "ĠTrina": 8914,
      "Remy": 8915,
      "Ġchains": 8916,
      "Ġmugs": 8917,
      "Ġproviding": 8918,
      "abra": 8919,
      "Ġweighs": 8920,
      "Ġsincere": 8921,
      "Ġweapons": 8922,
      "Ġnightmares": 8923,
      "ÅĵWeÃ¢": 8924,
      "ĠRobin": 8925,
      "Ġheavily": 8926,
      "Ġcommon": 8927,
      "ĠPippa": 8928,
      "Ġecho": 8929,
      "Ġtypes": 8930,
      "Ġswirls": 8931,
      "Ġunfamiliar": 8932,
      "Ġexperiences": 8933,
      "Ġdefeat": 8934,
      "Ġproperty": 8935,
      "Ġinjured": 8936,
      "Julie": 8937,
      "Ġsnorted": 8938,
      "Ġmagnifying": 8939,
      "Ġcoughed": 8940,
      "Ġpleasant": 8941,
      "Ġtortoise": 8942,
      "Ġlarger": 8943,
      "Ġgorgeous": 8944,
      "Both": 8945,
      "Bird": 8946,
      "Je": 8947,
      "Jon": 8948,
      "Keep": 8949,
      "Mother": 8950,
      "Mimi": 8951,
      "Pam": 8952,
      "Paula": 8953,
      "Santa": 8954,
      "Ted": 8955,
      "Vroom": 8956,
      "ca": 8957,
      "lish": 8958,
      "rnie": 8959,
      "Ġ4": 8960,
      "ĠOf": 8961,
      "Ġarom": 8962,
      "Ġlush": 8963,
      "Ġdips": 8964,
      "Ġgates": 8965,
      "Ġnic": 8966,
      "ĠSince": 8967,
      "anced": 8968,
      "ute": 8969,
      "cker": 8970,
      "Ġrips": 8971,
      "Ġstur": 8972,
      "Ġplow": 8973,
      "ĠBow": 8974,
      "ĠBuster": 8975,
      "Ġwhir": 8976,
      "ĠMila": 8977,
      "ecul": 8978,
      "ĠAva": 8979,
      "ĠAccidents": 8980,
      "Ġalley": 8981,
      "Ġaloud": 8982,
      "Ġscow": 8983,
      "ĠWil": 8984,
      "ĠWhee": 8985,
      "Ġcarriage": 8986,
      "Ġlaunch": 8987,
      "ellie": 8988,
      "ĠLight": 8989,
      "Ġflock": 8990,
      "Ġblur": 8991,
      "ĠFel": 8992,
      "Ġpoles": 8993,
      "Ġpeak": 8994,
      "andra": 8995,
      "Ġtwelve": 8996,
      "Ġench": 8997,
      "Momma": 8998,
      "Ġuntangled": 8999,
      "Ġgrump": 9000,
      "cts": 9001,
      "ÅĵBe": 9002,
      "Ġenjoyable": 9003,
      "Ġdeed": 9004,
      "ĠNever": 9005,
      "Ġruff": 9006,
      "Ġmonth": 9007,
      "Ġwoodcut": 9008,
      "Ġwoodpe": 9009,
      "ĠAfterwards": 9010,
      "Ġarmor": 9011,
      "ĠKiki": 9012,
      "Ġcreams": 9013,
      "ĠFlo": 9014,
      "Ġgulp": 9015,
      "Ġattitude": 9016,
      "hole": 9017,
      "Ġalongside": 9018,
      "Dog": 9019,
      "oga": 9020,
      "ĠSteven": 9021,
      "Ġpeacefulness": 9022,
      "Ġbathing": 9023,
      "Ġweaker": 9024,
      "Ġtents": 9025,
      "Ġcaterpillars": 9026,
      "Spike": 9027,
      "Ġleans": 9028,
      "Ġstriking": 9029,
      "Ġencount": 9030,
      "ĠFran": 9031,
      "Ġleopards": 9032,
      "Ġvibr": 9033,
      "ĠShare": 9034,
      "Ġrows": 9035,
      "Ġinvitations": 9036,
      "Ġladybird": 9037,
      "Davey": 9038,
      "Ġventure": 9039,
      "Ġsituations": 9040,
      "Ahoy": 9041,
      "Ġsilently": 9042,
      "ĠCheese": 9043,
      "Ġtempting": 9044,
      "Ġcondition": 9045,
      "Ġfacts": 9046,
      "True": 9047,
      "ĠBounce": 9048,
      "Ġreappeared": 9049,
      "Ġearned": 9050,
      "ĠMartin": 9051,
      "Outside": 9052,
      "Ġwhoosh": 9053,
      "Ġexchange": 9054,
      "Ġunwrapped": 9055,
      "ĠRosa": 9056,
      "Ġwhimpered": 9057,
      "Snowy": 9058,
      "Ġrebuild": 9059,
      "ĠButtons": 9060,
      "Ġpeacock": 9061,
      "Ġaroma": 9062,
      "Ġnicest": 9063,
      "Abbie": 9064,
      "Che": 9065,
      "Cat": 9066,
      "Luke": 9067,
      "Sus": 9068,
      "Sunny": 9069,
      "free": 9070,
      "gr": 9071,
      "hny": 9072,
      "hib": 9073,
      "mon": 9074,
      "olcano": 9075,
      "pan": 9076,
      "paste": 9077,
      "sa": 9078,
      "site": 9079,
      "uess": 9080,
      "wing": 9081,
      "yle": 9082,
      "ĠOh": 9083,
      "Ġtot": 9084,
      "Ġdumb": 9085,
      "Ġpecul": 9086,
      "idi": 9087,
      "Ġnanny": 9088,
      "ĠSatur": 9089,
      "onest": 9090,
      "Ġthir": 9091,
      "lled": 9092,
      "iring": 9093,
      "Ġyelp": 9094,
      "Ġstate": 9095,
      "Ġplugged": 9096,
      "alled": 9097,
      "seed": 9098,
      "ecca": 9099,
      "Ġspies": 9100,
      "artment": 9101,
      "iciest": 9102,
      "ĠJasmine": 9103,
      "Ġlevel": 9104,
      "ĠWake": 9105,
      "Ġbirdseed": 9106,
      "Ġotherwise": 9107,
      "ĠDay": 9108,
      "ĠDuke": 9109,
      "Ġpoppies": 9110,
      "bba": 9111,
      "Ġpeels": 9112,
      "venir": 9113,
      "Ġhandy": 9114,
      "Ġkindest": 9115,
      "Ġadop": 9116,
      "ĠCarefully": 9117,
      "Ġraked": 9118,
      "Ġsooner": 9119,
      "Ġdollar": 9120,
      "Ġlistener": 9121,
      "ĠNathan": 9122,
      "Ġarmy": 9123,
      "Ġgladly": 9124,
      "Ġgrassho": 9125,
      "Ġmessed": 9126,
      "Ġdrip": 9127,
      "Ġcooled": 9128,
      "ĠKaitlyn": 9129,
[...]
